node {
  name: "lstm_1_input"
  op: "Placeholder"
  attr {
    key: "dtype"
    value {
      type: DT_FLOAT
    }
  }
  attr {
    key: "shape"
    value {
      shape {
        dim {
          size: -1
        }
        dim {
          size: 5
        }
        dim {
          size: 27
        }
      }
    }
  }
}
node {
  name: "lstm_1/random_uniform/shape"
  op: "Const"
  attr {
    key: "dtype"
    value {
      type: DT_INT32
    }
  }
  attr {
    key: "value"
    value {
      tensor {
        dtype: DT_INT32
        tensor_shape {
          dim {
            size: 2
          }
        }
        tensor_content: "\033\000\000\000\200\000\000\000"
      }
    }
  }
}
node {
  name: "lstm_1/random_uniform/min"
  op: "Const"
  attr {
    key: "dtype"
    value {
      type: DT_FLOAT
    }
  }
  attr {
    key: "value"
    value {
      tensor {
        dtype: DT_FLOAT
        tensor_shape {
        }
        float_val: -0.19674775004386902
      }
    }
  }
}
node {
  name: "lstm_1/random_uniform/max"
  op: "Const"
  attr {
    key: "dtype"
    value {
      type: DT_FLOAT
    }
  }
  attr {
    key: "value"
    value {
      tensor {
        dtype: DT_FLOAT
        tensor_shape {
        }
        float_val: 0.19674775004386902
      }
    }
  }
}
node {
  name: "lstm_1/random_uniform/RandomUniform"
  op: "RandomUniform"
  input: "lstm_1/random_uniform/shape"
  attr {
    key: "T"
    value {
      type: DT_INT32
    }
  }
  attr {
    key: "dtype"
    value {
      type: DT_FLOAT
    }
  }
  attr {
    key: "seed"
    value {
      i: 87654321
    }
  }
  attr {
    key: "seed2"
    value {
      i: 347220
    }
  }
}
node {
  name: "lstm_1/random_uniform/sub"
  op: "Sub"
  input: "lstm_1/random_uniform/max"
  input: "lstm_1/random_uniform/min"
  attr {
    key: "T"
    value {
      type: DT_FLOAT
    }
  }
}
node {
  name: "lstm_1/random_uniform/mul"
  op: "Mul"
  input: "lstm_1/random_uniform/RandomUniform"
  input: "lstm_1/random_uniform/sub"
  attr {
    key: "T"
    value {
      type: DT_FLOAT
    }
  }
}
node {
  name: "lstm_1/random_uniform"
  op: "Add"
  input: "lstm_1/random_uniform/mul"
  input: "lstm_1/random_uniform/min"
  attr {
    key: "T"
    value {
      type: DT_FLOAT
    }
  }
}
node {
  name: "lstm_1/kernel"
  op: "VariableV2"
  attr {
    key: "container"
    value {
      s: ""
    }
  }
  attr {
    key: "dtype"
    value {
      type: DT_FLOAT
    }
  }
  attr {
    key: "shape"
    value {
      shape {
        dim {
          size: 27
        }
        dim {
          size: 128
        }
      }
    }
  }
  attr {
    key: "shared_name"
    value {
      s: ""
    }
  }
}
node {
  name: "lstm_1/kernel/Assign"
  op: "Assign"
  input: "lstm_1/kernel"
  input: "lstm_1/random_uniform"
  attr {
    key: "T"
    value {
      type: DT_FLOAT
    }
  }
  attr {
    key: "_class"
    value {
      list {
        s: "loc:@lstm_1/kernel"
      }
    }
  }
  attr {
    key: "use_locking"
    value {
      b: true
    }
  }
  attr {
    key: "validate_shape"
    value {
      b: true
    }
  }
}
node {
  name: "lstm_1/kernel/read"
  op: "Identity"
  input: "lstm_1/kernel"
  attr {
    key: "T"
    value {
      type: DT_FLOAT
    }
  }
  attr {
    key: "_class"
    value {
      list {
        s: "loc:@lstm_1/kernel"
      }
    }
  }
}
node {
  name: "lstm_1/recurrent_kernel/initial_value"
  op: "Const"
  attr {
    key: "dtype"
    value {
      type: DT_FLOAT
    }
  }
  attr {
    key: "value"
    value {
      tensor {
        dtype: DT_FLOAT
        tensor_shape {
          dim {
            size: 32
          }
          dim {
            size: 128
          }
        }
        tensor_content: "z\002\231=[\316\236\275\322\230\335\274}\302\263\275\231I\010=\323A\225=\245\230/;P\201\236=\376O\373=q\264\324\275f;\304=\220-\203\275\256p\376=\026\017g=o\0315>\203\2419\276\365Fx>\311+i\275\005\305\020>\324\237\331\2755\224\253=6\257 \276\177\222\302\275$mN>u\342\264=\353`.=\367\336\376\275\206\334\236\274`Q\247\274\211\017\222=\264\277]\276\352-\210\275\314\024\004=n\327X=\377\340\371<\210E\014\275H\276g\275\342.#\276\322*\324;\263\251\213=aa,\274\022ER\275\004P8>6\240\211<6\325W=\314\026\371\275#\265\020=y\037\271\274\321a\375\275s\331\025\276\327\361D>\372\0308\276T\356\261=\003X\372\275\037\236\252=g\n\002<]c)\274\272\240\346\275\244\234\316=\312L%=\356\037\032\275$\231\276=1\300\340\274[\024\213=GM\023=\317N\356\275\344\035\230;[\271!<k@\326<\n\261\214\275\250j\3149\002$\314\275\336\200H:\202\326\310\274\306\230\354<\201d\303\275\257\201I=m\322\\=\214\215\257=\024\031\023\276\206\024\2609A\257\204<\270^T=\026\256C\272`\363\313<\006\035B<\341\215\033>\352\336\217\275\211\241\254\273\255q\014\275K3\027\276\346\375\211<\202\3128\275X\256\241\275\'\021\025=\017%\217\275\364\253\312=\227N<=\361\360@\275\354\211\372=\177\253\036>YM\216=P\253\240;\2123(\274\375\337\230;\324N\271=+$\177\275\256]\250=\373\267\366\274\036|X=\036MD=*\022\323=cp\205\275\231\222\234\275\335\024\231\271N\217}\275\377\254\365\275\336\246\237=\275b\275\275\037\240%\275\360\337\360=)\233\365\274\361\365Z\275nA\202\275\221\031\276=Rjr\274\024\377\246=\311I\233\274.f\232\274\3567\t>\367\257O\275/~\333\275\212N\034\276,%|\276\016\307K\276|\327\200=\001g\367<^M\013\275n\357(\275\367s\027>\257\353\356=]99>V\270\271\275\340s>=X\t0=\366M\201\275\001\314u\274\001//>9\352\370\275W\352\210=X\217?\274\332;\364\275@yA\276\216\336\315\274\316^)=\345\232\021\275\265\212\311\270l\344\215=\003\330\204<\020e\323\274\t\366\202=\350O\311\275T\273\327<\321\3611\2756$\003\276UH\310\275\0353\305<~q\232\275\247\202\336\273:\r \274\227\021\021=<+\010=\355h\245=\'\033>\275\360p\307=<u\215\275T\000\242\275\003\220\n>&\313\306=x\245\"=`\332\241=\274$\014\273\267\316P>\261\354T\276\216\337m\275\\\347\251=\252\022\200=!\302\016>\227\354\030:\330\314\r=C\300\205=_\316\247\275T\314K\274\345S{\273\r]N\275\231-\231\275\323\206\261=\201!/;\346\376g\274[\217\213=\207\230$=^}@\2754\304\214=n\332!<e\314\r\275\n/>\275\263y\375=\372\377\210\272\305B\273<\354wE\275\0036\026>\265\3574=\177{\275=C\303\332<\206@\333=|\362\200=\255>\350<\367\310\353=\222\010\243=\317%\t>\006\247R\275PT\371\275\262\212\n\2766>\276\275\320-Q=\340p\214=\260g\261\274\223\254\313=s\264\022\276\017\361\303<\316\020\033\275\245\254\226\275w9\205\274k\264 \274\002x\234=(\250\247\274\266\025_=\231j\036\276\241\356\263\274\341\236o=(\376\314\274\r\266\213<W<\371\275\321\247\033>\360f\016<\010\0033>\177\312O=\217\343\211\275\320\337\242<D\016z\275x\363\027\276\264\242>\275@7M=\267\221\023>\tC/< Y\207=\334*\377<\000=\001<\370r\300\275\331\006\020=\273Z\344<\026e\374<=\352\211=\226\343\276<1\n\234\275\0166\266\275;\255\353\275\234.\020\276}\267\347\275\332\337\365;\206r\320<\006p5\276\264\203>\275]\200\355<\340\013/=\203\225\035\276M}\346\273t\227\310\274d\356\214\274\332\314L\276\036d\232\2757\021\347<\366\214W=\357\337\374<\304\304\250<\202\250\265\275;\202\320;!-\305\272\255q\323=xc5>\306\255;>\357@\226\275\354m\010\274\305\006\232=\270@\034=%\254\226<5\324\247\275\200v\325=Q\306\300\275[\272!>E\207\230=FB\242\275\311\341d=X\020|:-x[=@:\264\272\225\245\350=\346\342\352\275\000\234\r\274\r\006\223\275\3633\017<\337M\234\275\215\366>\275%\017j\275?\2554=\242\3748>\263\316\000\276|5\035<V\322\200=\2155\000=\265\200\030=:\032\n>i/\014\275\027\301\306\273\325\314\202=\207\001\005\276\317\307\317\275\033\361\322\275\327\223\215<\377\206\311=\000a\212=z\376\346=\255\023\031>\327.v=U\247\301=\205[\352=\375\341\247=\023\271\322=ie\371\274x\320\346\275\005\006->2\256&=]\247W=t\365F<\233Q\350\275g\316\207\275\237y+>S\005\262=\301\300y=@8\271;\212\335\260=b\343\224\274u\0022<\373\\\245=!\317\372=\202i\265\275%\262%=:\321>\275\254\026,\275L\354\334\275\t\304\007\276#?=>\366\334\227\275`.\037<\030\254\223:\005J)\276H\014\266\275=\036\256<\202\250\016>]\336\331<\313\023h\275V\233)\275Q9\024>\357\003\215=\235\004o\274\327\214\261=I\352b\275\304\241\034>\262\324\037=Bb\000>\031TK=\201\345\355\275\302\202\030\27606\201<d\274\347<7\366\230\273(G\025\276[p\246\275\227\327^=\244\"+\276(x\010>Z\274\037\274N\322\235=\344\321\005\275\313 \r=\207\312)=\002r\271;\327\377\221\275H\021\333\275(\212\n>\021}\252\275L!h\274\3661\004\276U\234K=\006\207\006=\001\201h=?\207\330\275=f\250=%\226\350<IN\261\275p\337\360\275<\001<\275#\032\037=EA\000\2742\266\032\275ZDN=S;\311<\365h\276=\256\222*;\013\224\340\275o\300\254=.\"\300\275\367\212\272\274\214\017\001=P\205:>\217\335\322<\336\364\235=\355\0108\275\365~\237<E+C=\261\3304\273\007m\235\275n\321\020\276c*\212;\210\226\247\274\321#7\276\305\017f\276u\260\326\274\260\2553\275\230\277\312\274eG\216\273\264\317n\276,c\252\275\315\351X\275\372]B>\260\267\222\275\245a\204=\201\344\030>\311\220\330\275a;\243\275\306\240L\275\2524\t\276\336\220o=]\314\013=y\001_=,\213\214\274\032 X>\364\244(>E\2163=\3122\352=0\205\256=\371\027K=c\354\215\275.\376b\274\031\333\210=r\331\262=\307\256\357=\033j\005\276F[\306=\250\317.\274\311\240\222\275\301(;<\360\220\035\275\2003\245=\026\303\267=p\034\024=\322&\326\275\300N\010\276`\201\345=.\261\304<[\215\002>7\233F\276\032\320\272\275\323\214y\275\201H\230\275\367N3=\244\264c=\030\010\275\274,\350\220=yt\322\275\345\023\017\275\\\3609>\350>(=\200\344\363\275L\226\337\275\232\200\024\275\307m\301;b\237\255=g\276\243\274\035\376L\275\330X\340;wyx\275l\001\323<\000\317S\275e\331\324=\\u@=\273\331\334\274G\315\331=d\272\227\275I\360\017\275\223\r4=!\2745=?\3528\275\352Y{=]-6>\3776\263=\310\241\024>#~\261\275\247\201\342=\334\334\010\274\336\353:\273G\201\346<\2731\005\274\202D.>\211\203y\274\205A\242=n\321\004;\213\360\020<\315\203.\276\321\244\202\275\312\rL>\032\305\n>Op\216\275\227\363\201\273.\2757<\311\317V\275\210\217\207\275N(\367;\315\261@>\367\225k\275\217\236\213\274x\321T>PP\244=c\202\363=\376\352\253=\315\314\233\275d;/=\206\302&\2759\375+=\230\005\267\274q;\316\275[\377\343\275\214?$=\221\364\024\275x3f=\"n\000>\t\363\307<\0341$<\310+D<D\203R\274QO\372<\004\316r\275&2\332\275\325*==\341$\245=c\353a\2759>\301\275\332\020\025>\342{\002\275`\371\n\275l\2054\276\2034\246\275\222b\035\275a8\247=\364\274j\275\241\013z=VE\274<j\2611\276\357\356\t\276\t>~\275\325~\340\274\205\0265\276.\037=\275*\376X=\004\251\245=\036\373\226<\270g\227;W\rl=n\021\001>\273\330\023=\t{\246=\267\032!=\030k\230<\240\351\324=\005pq=\321\030\033\275tgM\274\366\217\317\275\346\315\305=j\376\267=\361\263E\276\024J\036\275\320\355p\275\024\017\'>0\331\240=2;\350=\236\317 \275\235\033\347: iE=t\361\353=,I\004\276\013\321\034\274\277y\014>m\031\024;\326Q\266\274\224\331/\275\211\360\373=h\3509\275r\272\225=\334\n\316=f<\210<\377\300\265\273n@H<\314\0052=\032\247\014\275\"7\344\275\342k\366\274S)\036\275=\210>\276\245I\363<\354\246\212\275\352D_>\021\221/<\013\350\376=\362\344\024=\376I\335\275H\3353\274\273\371J\275\037n,=\332V\332\275\270\026\322\275\212@\213\274\2455\322=lh\210=\240\022\337=\237\233\256\275j\200\013\276F\207\037=z\207\370=\001\263\257\274\320\270\215=\013\307\206\275\007\016\005\276@\312\007<\247~\362=\213\204\350=\376\314\235\275\364\201\235\275\373\267a=\265B\217=\310r\360<\207\013[\2741\254\375=_W\242\275\224\311\260=\212o\321<\216O+\275\355-\234\275\r\265\300\275.\\n<\244\354\010\276\214H\206\274\323\255\025>\343\221\344\275Mb\240=\257\267\303=\010e\374<\245k\306\275M\3701>\324\317\"=~\315\210\275\013jD>\304W\371<\356\211\000\276-\261Y\275t\356\007\275\002\253F\275K\352\331=\023\323\334\274\207-\002>\"\331|\274c\237n\273D\354\377\274`\251#>\035\237\037\2765;\032:\262_~={\177\t\276gm\001>\305\352\035<F\2735\274\244\353\362=7\351\305<A\311\345\275\177eQ=\230a\302;\227\033\006>\200\316\233=\346)e\275s:M\275\253\222\253<\347\205s=\313\241$\275V4\266=\250*\264=\230|p=N\323\314=\227^V\275\366\037K\275\006\310\033\276\262\205\240\274F\345\356=\354\262)>\177\222\366<;\217\254<2\200p\274J\035.\273\000\313\312=\201\365\260=:R$=B6\007>~\201\375\275\354\036\316\275\340\355Y<\357\036\224\275\251\263\216\274\332]\234\275\347\367\352<\207\204\374\275\304k^<\0310\244\273\225A\267\275\304C\027>a\340o\275>\362\206<3\337)>l\372/\276\317\316\354:\363K\265\275l\341L\274Z`s=g\276L\276X\273p=\352\213P<\246\024w=2j\177\272f\304a=\234:\n>[\220\262\275\316\214\345=EU4\274\346\207\032>\034\211d\275\275\0137\275<i\217\275T\305\221=\0251\022>\333=\230=\021\376\356=5\267\244=3\253\372\275\257\351\277\275\220\347\003=\r\204\365\275\0076\244\274\320c\262\275\232\004\314=\373\240!=!c\353\275\\\205\253\274\365\337\316=R8f<+|\212=\3544\001\276C1\346=\026\260\311=\300\n\036=1\323\273\275h\263\266\275\005\260\230=D\313\265\274\372\nz=\362V}=\214\001R\275?@8>\234k\363=\306,E\276\367\232\232\275\252\246\223\275\033\317,\275<d\230;\246\225\277\275\230\372o=\022`\r=V\001/\276\307\356\007\276\261\371\302\275\337\247k=\304\271`\275\310l\247;\334|\004\275\027A\306<AA\251=]\211\270=\023\t\026=V~\010=(Zm>\220\312\261\274\027\013\213\275r\340\237\274\010\216<\274\377l:>\351\207\006\276\363\353\226=\204K\374=g\272\321\275\367\334\276\274\377\353\372=\243Yf<\366S\027\275\036\222%\273/\321\215=\210\001\273\275\336(\035\273\351\037\214\275\030dt=Z\342\304=\027\233\360<\2146\260\275\340P\301\273\221)\356<c\302\321\275\311\023\350=-\261\037>\251C\033\276W7\266\275\336\000\311=\372\255\005=\330\340\334;\000\2537>\247\272\262\274\177\330\016\276%\227-\275s\270p\273I\241\212\275a\274p=\0173\204=\366\272\220\275\325\233\241\274\247\316\276\275\335\032\273<v\307\331\274\245\205v={\'B=\014\330\247=\270z\245\275@\247\354\273X\372\340\274\211\254k\272\274!\256=\343\362\371<\362\271\225=>\372\273\275K\311\203\275\006f\n>R\013\365\275g?\234=M6H=\321\307\362\275\357>o\2754V+>\206\234a9\224\340\017=j\232\">\036\315\335\275:Z\256<\031\3327\276l\037\355=@\n\247=\037\025p\275\350u\206=$\361~\275!\253I\275\034g\275=\255J\372=\014k\203<\010\357\257=\312\032\217=,\336\215<\364\363\010\274G\' \276\243\213\224\275\247\316\016=\344\261\335=\306\035\334<\225\227/>\372\252\221<\203\2700\275d\350F<\335M#\276\373\262\264\274[\245\330\275\'u\305\275S3z<3\241\347\274\000\0202=\'a\227\275\263rf=G\361\256\272b\207,=\211$j<\360\261\306<\021F\371=t\220\301=x\372\250\275d\246O=l\244\026<q:\375<\335\314\367\275\n\215\300\275\023\013\355<z\332\274\275\001\261\034=\251\177\305\274\326\252\014=\224#\013\275E\375\003>G\243`\275\202H)\276\306?\035>\330\321&=\001\327\321\275I8G\275H4@>P\'{\275L\300\342\275\200\257\341\275F\204\201\274\336\362\333=\0050\336\274\272\257\010\275\241\371\370<\004\335z\274\224\302\306\274\345\245/=\252m\303=P\263\367\274o\031\002=q\263\345<)#\310\273\006\344D\275\371\263\361\275\220-]>EI\026>\267Vv=I\226\356=\224\323\016>\337C\346<\242\364I\274`\301\037\275\360S\334<\200\373\314=\371.\210\275\237\276G\274\356\313\222\276\215\210S=\007\212\352\273\342_\032\275m?\317=9f\207\275(\031\033=\335\250\021=\216\327E>f\377#>\306\230k=\355E#=G0\223=^\236\037>\017\233\257\275x\\\336\275\2326\357<\332\210\304<N\340\033\275\314\205\213\275\245\307\306<;\311X\275$\010\263=\343\364\310=\232_\312\2755\006\230\275q\337v:\t\322s>\264/\233\275\264\260Q=t\327h\275u\254\355=\031\236\021\276fUd=\020\242\266\275`\006\376\275]\227B>\323\354\335\273\263\350$=\240\0026\275GPt=#\222\331\275\376$L<\034k\035=\304\307\020\275 R\267\275\206lO=\035\327\003\275\353\020\t\275\"\371,\275\020\312+=\311\323\365=\307\013\340\274\305\256h=I\373\036=\027!n=B\025)=6\354\235\275\204\375\014;V\242\301\2743L\202=\314\256\226<\247\343F=\312\333?\274s\372\310=\2468\306<l\026\006\276f\266b\275\227\020v=E\245\003\275L$\235\275\252\026\367\274\262\203\276\274\267\353N\275\304\332\251=\214_\177\276\323&V=\t\347\"\274pC7>\022\303^\276\3713\345\274\303J\232\275\237\340\266=\262x\025\276\224\3705\274\004\242\270;[\205Y=wb\325\275U\373y=b+:=m\231\351\275F\363\247\272\024%P\275}\021\376\274\022\236|\275\024d\243\275\225\217\312=\013\352K=\215\014\001\275k\247\251=\322w==ko\261\275\203\351{=0K\"\275\326A\301\274\244\343\316=\342\355\221\274\r\tp=NgD=\017\252\002\273_\257#=\360\221\306=\2367\330\274\377\324\277\275\265\214\201=\274Y\214\274\215|\240\275f\242\276\275DC\250\275\240\211\030>\010\300\374\273\320g\220;\330\033\247\274\227\314\227=<E\245\272\354\212\261=\212\261\310=j\035E=\034I\"\276\007\246\273:\330\341\357=\r\t7\276\013\343\244\275\210\335\356<+\233Z<\321\036\215\275V\334\214<?j\221=0.i=\'|\233=Q\355g\276\277\323\271\275\3458j>\373\316\010\270\355\247,>TIM<\\\356\251\2747Dm<\222\355\234;\021&\037\276\324~\344\272V\265I=\326\266\002<\325>\275<\332W\204\273\036\004\300<^\275\020>\211\354b=\"\367\205>\010\232I\275 {\270\275o0b\275=\024\340\2752V\222\275\237\352\233\274\201\322\245<!\224\243=\001(\t>J\002\301\274\350\326#\275\337\205\200>\340e\270=\0203\023\275\n\266\372\274g\240\271=\200\201\'>\324\335\335\275\311\247\250:C/u\275\237\273\001\276\342\325\033\275\377]#\276\373\275\235\275\0315#>\301\351,=A\232\331<\225\227\354=\366\020K>1\307\276<\322\253]<\363\227\016\276\343o\352=x\335\006>-[\033=f\311\223=\224\340\244\275J\207\270\275A\373O\275\216\330\022\275Sy\301<\3652\341\275\226\036\017=YZ\013\276?X\230=R\257A\275uT*=B*!>\033\026\304\274\000J\213<\323\330\370\273.\365k\275I\253\035=\023\241\377=\363j\371\274p\3306\276\'_\246=\217\361@=\221K\013=\t\273T>[\364\340<!\253D\275o\343\376=?\210\237\274\214\270\313=/\353\321\2758\337\013\275\027\300\002<\346nZ\275\371l\211<\3006\233=/\352\203=\2167\000>N\302\226\275BY\344;^\3343=\220\211\312\272\377&\265<\3474\031\275\244\021\026\276\264md=\006\332\301\274\371]\340\275\0369n=\240\253=\276zu\245\275\250\225\343\273o\262$\273\001\277X=\202\206\222\275$\266\020>\211\231\272<\327\362}>\3376o\275\363 \301\275U\024\243\275\257k\016>s\277x\275\361_\222<\002\204J\275\020\007\336:\345\230N=\245%\000\276\2242\344<\373Z\033\276\322\231\002>rA\037\276c\327u=Kh\226=\260\375\360;\340s\200<\270\205\033>H`\272=\017\224\214\275\036\313\005\276\343\305\235=H\006Z=\366\004\214=\341\333\204\275\235\270/=\266\213\205\274\235\250\214=\322\006c\275<aV<J\r@\275\036\313\270=\022\204\372;\256\213a\275\372\010k\275\027\200&\276\023bA\276g\244\251=\357k\207=\303\216\264=\005\257+\275\353\203\226\275\250\341\010=\2773\375\274\016\334\204\273N.\025\2748i$\275\004\261\243\275\2253\005=\333\327>\275s\322\021>\356\352\t\274\267\346\335=\267#\275\275\n\271[\275\304P\204<\301\261\035>\3247\267:\n)\250\275i\244\324<\014B\357=\200h\252=\032A\026<yub=\207\241\351\275=\352\325\275\206\212e=a\024\355=a\224\206<\301p\246\275=\254\207\274\032\304\224\275:\240\364\274A\033\235<\016.\317=i\303\200\275\023b\276\274\225\317\252\2749I/>\227H\301\275\374\335-\275\323\267\313\274\217*7\275<\300\206\275b\220Z\274z\313\017=\031-\365=F\006F=@\t\366\274\217\021\256=\n\226\244=\257\303\274:\324\255-=5P\356\274\201g`=\325\337\031\275\372\303\323=\221\202\032\276l[\275\274\314[\231=\217Xg\275;\":\276\364%E<\340p\030\275Y?\2549a\373\021>F\344\341\275\342\031\'=\346\235\240=\226\346)>A0b\274\"\222\266\275\303\017R\275\2571\006=\n\006<>\021\251\231\275\233\372\'>\353\016\033\275s\257\020\274\260\243\234\275,\232\332\275\255H\276=\332+\244=\247\031&<\357Z\014\2765\032\350=\277\232\236\275\013%\255\274_/\301\274P[.;I\205\314\275ZG\213\275n\326V=\356\362\305\275\236\332\374\274\274\230\344:C\016\205\274\210\2723\273\233\032/=\214\344\301\275a\230\230=X\301c=\"1+=8\342\305=\251x\333=6\226\205<\221\006\234\275\337\257\343=N\312\202\275;\r\025\276\234\207\252\275\\t`>\213\330\373\271\276\033\004>\014\202\376=\307\315\243=PR><7\224\260\275\002\361{\275\325\224\364=\3103H\276\010\346\'>p\271==D \032>K\355\364\275k\302\201\274\273G_<\300a?\275\252\010h>N\332\364\2758\016\324=_?\265=\333\241\267=~\024\314\275\333u\217\275\360\334\275\275Z\314\003\276\021\227\300\271\017\261\007\275\271\205\272=\211\002\270<b\036\367<\014\314\347\275{A\250\2747\357\302=\266\334\213\275\034\037\t>\r\327(\275W\260u=t\273H<&\262==,1\305\275#Nr\275]\227\002>\355A\025>!\216\237\275\353\324\177=\312\014\354<QT\233\274\363\3734=\026w\264\275R\334\216:$\202C>\342\001W>k\324K=\3626\333\274\026\354\307=\006Q\013>\023`\026>\365\340\021\275\207\253\r\276$\317\237\272Ct\352<\220\255z=\177~\243\275\224\017j<\204F\374=Wg\022>\241\317\230\275\016q\217\275mv\000\276\374\025q=H\024\t>\240\352\356\274\326\336\216=z\001\203\275s\241\222=\262\003\224\275\235\365\025\276\216\177\200\273\024\254F=\0006`>\'u\235<U\335\357\275\332\260\016=\342\363\007>\031\215\t=\032\362\010\276\343\311 =\002o\034\275\nj\025\275\370\022\236\275\275\300\214=i\3426=,\005\002>\223RG<\315\032\362\275\177\257f\274)h#<\311L\027\275x\221J\275\220\212\377=jWd\275\253[\221=\264E\376\274\324\354\340=0#\333\274\250\367\303=\274\t5>C\002\204\273\215\227\211=\211a\014>7\214\025>\351\210\006\276n\270\352=\017\202\r\275\037\225k\275\265\022\034\276~\266H\275w\272C>\231P\035\276.d\314\274\002\266\203<o\267\276\275\3678\352\275\275K\257\275\024\204\035=xO\206\275\324\300@\275\260l\217\275VD\275<\267\003l=\230Qe=\223\365\244<d\302\033\276D\200\217=\272\270\335<\014\344\252=\235\331M;\000C\225=!\225<\275\275\235\014\2755i\245<\316\213\201\275\217\361\027=\305\nl>\356\244,\275\025\332\264\274\301\314\334\274D\360\033<\265D\020\275\327\232\305\274\213G\341=\221Y\262\275\234~\362\274\204\212D=\3750\227=\247Yh\272\017X@=\275\022{<\320m\204=\024ZA\274FmX>\345\261,\273\300\000\221\275\246I\316\274n\215\301<\272\037\365\275\317\372Q\275\356\027I\274\270I\037\275\0368\216\275\313\244\324=\216\207\217\275p\364\202=Y\232\211=\"\037+\275,\036F>\217\261\n=R\250y\275\224u\217<\005\312\260<\177/\234<\254C\262\274<<\225\275p\023\264\275;\n\331=\2412T\275\252\366G\273L\274|;~\235\304=\323\202!\275\210d\277=6r!>\354~\344<\007\tZ=\362\3017\275\006\204\007\276\326h\316=\244\272\'=\'LO\275y\342\r\276\320\272\034\275\364K\035\275\356\255\014>\311 \215\274\016`\216\275\3220j\276\334G\344\274S\020\217=\344q\271=\241\305\225;\034\013Q\274\227Y\217\276\261\027Y\275\205\362e=\031\"5>>\237\240=\226\241~<v\250\244=\337\332\323\274\336\034\364=\037)?:\000i\030>\363\225\277\275\340r\320\275\327\360\237\275B=\027=\337\373\221\275 \365\303<\233\314:\275:\032\003\276\307S0\273\325SN\275\036*;\275n}\261=w\347\254\273\374\266u\275R\371\306\274|\362\010\274\023Z\033>\204\212\004=\371^\'\275F\032$=ZwX=\376Hw=\006s\263=3\324\265=,\0013>\r\367=\274\3563\357\274\353\326\004>\315\210\252\275*J\203=J\373?\275\tFD=\366:\233<\241\374\256\275\305*\270\275\0334\002\276}\310\313=XK\207\275\0143v=L\273\337\274\240\253\224=\3318\306\275Q\303\257\275\357)\007\275\367\\)=\226\272\025>\321\311\013>\316\330\343=x\332?\275K\016\311=\227F-\274\3569\000\276\356\346\354\275\266\2648\276\362y\307\275?T\255\273C\0017\276\355\017\222=\271\242\261=\231\264+<q\244x=\177\032\345\275\205\341\342=:\177\205\27474\207\274\205\263t\275\r\253;\275\206\353\035\274\034\"\343\275P\345(=N\010\036=\222\034V\275h\272\014\276\213B\311<\2108\321\274\335\341F=Id\216\275\257:\037\276\357\205<=$A\213\275V\226y\275\202C\016>G\302;=\223\020>=\261\246\311<|\024\255<\253\317\021>\350\255\322\275q\326i\274>\316\242\274\215\261\017\274_\224\227:\252p\014\2768\000\221\274iKP=\254\240\365;e\274\336\275\375\253\231\274\013\247\202=\212\014#\276:\273\267=%\027\376\275T\361]\275wsp=\356\310/\275\346S3<4\013\016>s\023\226\275}\234\n>gn\264\275\010s\010>\014\016\027;\n\224\361\274\360\'\026>\244h\303=\362g(>]\204\253\275\355rY\275I\322r>\202\250\271\275:\300\224\276i\030l>\232_\247=\304\220\263=\242\250\275\274ju\366=4[5\274\347\226\';\312\266\255=!\305\226\275M\276\307\275\017\274\321\275\014\237\1779S\351\016=\251U\032=<\261\230=\302\006\347\274a\234\327\275P\342\002>K\334\227<\210\212P<\004:D=e\311\340\274\252X\n\2765\350\325\274\361A\321\275\306\035\260\2758#L\275\304\372:=\276C\303\275\216\277E<\330\213:>GyR;\256\375\244=T<1\275a\253\033\275\346?\363= \337E\275hg\344\275\003b\260=@H\350=\245%p=\363\210\265<\302_\265=R\020X=\204KR=O\002k=\334M\315\275Z\221\214\274\377m\262\274\263u\327<E\333\233\275\202\265\211=WX\206<\262\314\203=\027\324E\276l\253D\275\373k,\275T\242~\275\316\225\371=\325\366\307=\006\375\023>\013<\001>\331\206L\275Z\334\345\274\"]\005;o4\246=\226EV\275\204YY=\371e\t\275/i\300=\227\337\240<\')\201>.\016\331\275\257\376i<<\3719\274\236\357\236<\372\212\t\276\020\302\264\275r1\023>\276~\004>\352 \233\275\332z\020\276\204\272\341\274\333u\350=\366\004\007<\317\351]=\257\347S\275\037v@\276e\240\003\275A\265\276<\271Y\\=P\247\267<\361-)\275\252\217`=+\023\207=\270\314\177=\261\300\010\276_\2112=\245\034\224\275\\\363\354\274g\010c>m\366\200=\3254W=\020\371\214=\365(%\275\230\3437<\203\300\242=\347\353\321=\374\212$\275`\316\211\275\317>X\275\372:\251\275\232\251\264=\230\210f=\230\240\336=\324;\224=O\302\375<\2249L\273sr\342=I\270\033\275\224+\264\275\034\'\351\274\205\250)\275\245\364\225<q\242f\274vq\266;QA7\276\257o\313;uc\022=\355\\D\275\205\376\370<\305\037\332=\026U\n=\034\024g\275R\322\233\275\261q:=1\224\302=\260G\241\274O\345\005>Tj\260=\010\376?<\206\036\007\276\3713\332\275\340\256\007>\3244#=\313c7=\035v\007:\230\356\027>m\273+\274G\327\010\2761\007\253;\334\000\362=\003\021\305=[\320|\273Db\014=\243\274\272\275C \303<dY\023\275\335\007}=\312\302a<\276\203\215\274\363R\317\275:G\263\275\016\007\253>,\271\014>\270=\256\275\302\"\207=\305J\334\2759\270\242\275q\033b\275\033\244\235<D\374\255\273\023\267\020\2766\265\000\276\247j\377\274\027X\016=\317b\331=\217|2\276\331\355#\275\034SR= \311\004>o\321\352=\207[\331\275\247\326\265<\217\206\263\275\324\235*=\313}H\275\236U\225=\242>Z=\355/;\273\373\244a=\006,\255;\264d<\275\316\233\212<Q\335 >R\352\251\275t\200\363<\244 \315\274 R\232<Y\235\237\275\353\363\214\275Z#\326=\251\364\322\275+\t\357\2743\202\020\2753x\313<?\004\t> \222\200\274\010\213\360\275F\200\223\275\034\205y\275\025\362\243=\311\207Z\275x~Y=\'\240\243<y\000\020\275\303\214\357=\376M\201\275\345\211m>\216\010.\276\362\314J\274\204\014\370\275\343sA=\266a\367;\341,(=\313Lj<\212\023[\274.<A=g\333\033=\2568d>\244wn\275\253\311z\275c>\201\275\351\236E\274\027\247\t\276\371\264W=?\333P=\030\253\231=0\023\370<\0309\036<\037\253\212\275\355\326%\275g\004\332=\013\227[<\"\365\'\275^}\241<\325b\330\275z\036+\274\272\352B;\2123V<\222\364\345=\324t\010=&\373\361=\242\367\034>\227)\373<6$ >\016\036\354\275\375qc=\007\025\231=\251\362{\275\340\023\252\274w\336\n>d]G\275|\201\313=\336T\022\275\243G\227\275$\374\003=\177\3029\275\370\367\312\275s\357\355\273<#\013\275f\2323=\350\202\375\2752o\214=mu\025>\004\261\205\275\204\177\276\275M\237@\275h3\347<\272^\236\275_bF\275\376~\007>\033\036\000\276\323\361\317\275x4g=\300\304u=\236f\271\273\272\236\321\275W\246\273<u\275\246\275\2124S\275:o\274\275q\016\356<\360u\032\276\251\210\340=/\300\364\274f\177l=\306\024\227=P\013\342\275\261\3217\275\031jU\275\313\277\202\274\215\273\027=-\322\207=\007\232*=3\266s\275%~\026\276L\2135\276\361\330#\276\256\013\337\275hl*\276%\363\230<\271\323$>\002\320\003>\345\272$\274\233\217-=\236\375\240\275\000\334\020;:\375D>.\272\210\274\356O\207=\242\230\310=\n\2610\276\260*\251\275\225y\347=b\273\022\276\205\364\007\274\345\202\007>\034\342\030==D&>\234\350\013=\207\266\365=8\370\211\274\320\033\215\274\'\254\336=9\"\254\275\241\326\304\275\254\263\366=q[J=\007\316\253<\230\272R=\322\335\357\275\024i?=O{k\275\t\357W\275\253\330J\275\271m]\276Y\3430\274-\3043=\000\021+\275k\033\276\274A\023D=\236\317\306\275\315\221\022=\355\334\240\275\024\274\346\273\204\246F=\253\033\003\276}\200\377</\354:\274\027\022\205\274y@~\275\246\317\003>\177\267\333\2752\206\327\275\307s\231\275\215\334\366=\371\235M\2759r\266\274\250j(\274\211\204\320\275\201\201\303\273\234\201\033\275\031\375^=j\014[\275K\371$\275;p\274=\213\n\306\275r\006\234=\270\347x<\323\334\002=\237\333\313=\236\312\010>g\237 \275\002\024\253\274+\t\240=|\212\205\275\232\314\333;T\026A\275\340\331\337\275\206\221\356=X\014?=\343\345^=\017\204-\276\254\267\233\275\335\024\272\274\251U\235\274\037}\235;N\277\251\275J\266\245=^=\322<\205u\000\276\262n\372\273\t\022\324<$.E\274p\034\003>\3511\372=\305\265(=]\314?\275\216-\307\275\343\301o=x3\274\275\361?\260;n%\360=\314o\016=\021\224\"\276\227\357\377=\274\225\257\275t[\344\275\177\332\306\275\014\'\321=\343\013\221\275\352?\341=\241X.\275\344gO\275w\253\024=\325\256*\276\277Mp\275@UX\275\241\341\305=@\027\331=;\366\220\275\366!*=\311\326\201\272\226\267Z\276\255\344!>\350jA\273\004\315\005\276\322\024\261=\303\253\003\275\307\003\355\275\026\346\304\274E\371\257=\254\216\004\275\004L~>\313W\300=\272\370p=\247\014\377\275o\245\372\275\377\211R\275\333\371\005\276\336\177\n= D\232\275\210fM\276\253\312\235=\362\322\235\274\340\337\326<0\365b\275\337\317\300<\356\303O\274\017nb<m\303\240\275\202\326D\275\314\212\225\274t\033\333<\335\272\000\276\356\005\"\272g\340E=\231\002V\275p\207\t=I\025\340\274HM\217\275O\310\013=b|\006\275\006!\003>\376\001\317\275\264\210\366=\001\374\325\275\270\366\035\276>p\'\274\241d\324=(\256->\360\230\346=\000\223\344;U\350\361\274\342{\240\275\352)\004\274\302\320\210<\251\320$>\252\266\352\275\332\272\271<\276\276\204\275\211\214\201=,V\007\276T\013\370\275c\236\236<\313\311N=|\356\033=#\030\214\274#\367%\275\354t\361\275\243\250\024\2752`3<}\364\'=\251|\246\275\307\2719=\003\033\350\274a\301\307\273PL\220;t\037\037=\245p\353\275\r\347\251\275\034` <\301K\032\276\200\207\214\274\226\255\243=\036cf\276:F\010>&\242\016={x\310\275\210\014\363<\241u\t=\336V\314<f\036\250\274[\211\260;y\232\303=x#\357=\017\341\n\276\334U\243\275AV\236=\327\204>\275m\205[=\244\"]=,\227c\275#\251\273\273I\211\334\2755F\230=\020\312\350<6\372\237=\233\t\033>P\nN<\375-\177=^\244\202\275\027\335\210<{\314\322=\320nW\276\213{^\275_\002\207\275I1\304=\006\024\265\275F\204\361<\271&B=8q\363=+\017\372\275)\322n\276\240\262\353\275\363\020J<XH\316\275\033\214\345\275Q\312\343\275\037!B>{g\301=\350\277\354\275\314\207n>\364\026\241=\306\221\260<\014r\301=\006[\352\275B\210\213=\"x\220\275\004\361\270<\370\310^\274\327\246\214\275t\341\201\275\331\001\001>|\362\007\2769I\006\276p[\016\275`\"S\270:R\341\275C1\232<\014\324\306=Wv\326=Jt\000\275\302\305d=\337\241\210\274\343\354\t\274*V\024=Q~\200=\315K\177\273\211F\211\275\372\013\"=\264.]\275\2635\003=\345!\201\275.\264\211<\261D!\275\247\215\215\275<\347\277\275\036\240g\276\035H\314<\344\203\031=\342@\006>\351\264\262=jO\005\275\275\024\014=k\216\216\274\2718\200\275\203\322\240=\212\025\001\276\3613y<\240_\221\276\341m\232\273\305\251R\275m\217\374\274\332\245:\275\376\247\226=8\331\345\273l\353-=\354&\371\274}^\027\276<Z\356=-\323^\272\377\227\374<\201\273\310\275\244\364k\275?\216\026\2766\313\025\276\t\240^\274\232\316U=\202\217\303<BG\325\275\233\255f<\360\217K\275\035B\314\275\221M\276=\352\213(\275A\024\'\2752\257n=C\230\035\271\340\266\227=Tf\313<h\013\027>\364\002\003>\215\252\332<y\261\347<\332\"\371\275W\2242\276\010%\300\275\360(~<u\2332\275\025\324\353\274^\341`\275\035\014\030\275\rL\r<\322V\240=\245\353>=\\j\240\275\3247\316\275\005\211v=\207\300\3409N\177\013\2764j\000\274\227\024\251<{\264S\275\216\211\336=uR\024\274<\223\203;Nq\021>~(\255\274S\004b\275U\322%:\216k\330=\336\221d=\020f|\275F\027\320=$*\371\275\027U\310=\354\323\200\275\rG\344\275,\263\026>\277_\210>\261?\014\276\352\242\007\276\303\004k\2751\032\310=\366\r\210\275\312\302\177=\247\201\362=\242^:>\274Jb\275\367O\230<F\273}=\356\333\350=\364\334<=\315\017\255\274\213\345\260\273\017uL>\272\"]\275\210\312\261=n).\275\356.\230;%\277\301\275\341B\340;x\021@<\346\227\004>\371\202\r\275\300bJ=\211\235?\275eXa\276$\316\026=\311\'\200<5*\"\274\\\335\212=\0248\030\275\030b\221=\036$Y\274<\225\231\275\312\252\014\276\214\014\026>\355\304\032\276\312\323\340=\2409j\273\0003\270\275\270,\326\274q\"[<\355|\231\275\336\0369;m\236\353<\025\035F\276\341\303O=\214\341\244\275\257_>\276\313\035W=\035\001\004>\230\302\237\2732\212J=&\250\212\275\001\261;\275\030\373\215<\304\330t\275r\362\201=,>\277=\367\035!\276Gs\244\275:.W\275^EO\276C-\245=\372\206\347=\225\"m\275Z)`\275\2272\010\275\277\271\262=ow\325=*\031\351\275\261\366\324\275=\202\221\275\224\300\334<#\347\324\275\020nH\274{\371\024>\354$\364\274>\351q\275\304H\004>\273B\005\276B\375\261\275\202\276\033\275\240\240Y>\314Q\023\276\342\010\016\276\027\031\025\275\351\362!=\235`\377=\260a]\275\312\210\'\276g\267\001\276\035\257\260=\274\261\234\275\010\306\275\275\360&\224\275\365\232\212=\001\201\022=\250\013\321\275Mn\357\275r7\014>\0356\312=l\205\216=\347\370\207=\030VI=\247J\\=\305\232\222\275\340\001K=\317%\224\274W\313\344\275@y^>?\300\210=6\332;\275Cg\304\275\266\364k\273)\260Q=\374I\025=G\362\211\275\376W!\27594\316\275Z\017\330\274I\274\225\274\354\017\333\275\351\030\216\275mq\200=x\300\201\275f\350\004=B8\252=\206#\320<\363EV\273\376\234Z\274\365hv<\353\010\305<zar=n0\312\275\376\031\242\275#\232\317=gR:\275\242\375\264\275\221r\366\274e\312\001\276\227\366\230\274F;\222<\354\345\315<!\272\220=+\375\030>r\005\212=\310\365c\276\001\003\244\273)\004\031\274\226\273\324\272\010B\203\274\227\247V=A\373\230=\207\300o=\234\032\002\275(\271\342\275\302G\261\274\020\267\215=\224\350\037=]F/;\324\261\351=R\325\203\275\257\237D\275.\335_=\017\037\203\274e\375\205\276\037E\024=\343b\'>^\256\203>\202\340^\275\005\272\343=\221\243\342\275\261d0=\t<\033\276Y\255\271=\tl\235\274Q\013\034=\t\276\252=\202\212\315=L\340\266\271\230\t\252<\036\242\363=\206\261s<c\215\313;\375p8\274]\365h=\235N6\276aQ\231=\245\305@<\\,0=\265\033\035=k\330\373=)4\213\275\210\307q\274\201\037\217\2756F\364=\003g\202=^J\250\275\335?\206<GQ\333\2746\377\204\275\005\227B>\374\207g\276\036\006\332<\365\326\367;7q\314=\357 \252=\245\216i\272S\341\367=\216\007.=\354\217\277\274G\242\322=:1\266\273%\227\276=\365\244\274\275?\001\234\274?\035\367=\243e\204\275$H\252=\256\336\n>\013ex\273r\272.=^\235\034\275\360\317\032\276U\374%\275\240\253\335\275\315\323\220<\027^\271\275\261\023\370\275\325\341\324=0\345\341\275\254\332\206=\034(&=\277\234\354=\360\201\214=)\004\031\276Se\267=\253\247\224=\301N\356<\020\222\322=\3446\340<\320\225\013\275}\210\003>APb<\362\031\304\275\027\235\277\275\255\263\r\2762\220\r=u\210\347=\370\230\242=K\\D<A\r\207<\317\274\271=E\177\016\276{\023\230=\034E\024\276\206\313\210\275\312M\'\273\357\335\305\272\000\335\247<+\260\325=0\273\031\274p\237\204\275_k\265\275\344\236\337=\3751v\275\356\003\257\2751\007\326\274 qH=\212S\335\275\234\261\277\274\377\275\026=\261qZ=\372\232e\275n\230\262;W\3430=R\250\207\275\371]\367=\264\320\213=h\370\000;\241\204\007>E\360\300=\2502H\275}$\273\274\205\312\365\273YY\225\275\312\201\356\275\222[\312\275\262\306l\275\365>\377<]\205O=6\213\006\275\245_a\275\035\260\244\275\0324\356\272\273\302\357\275v\364\232\272J\212\240\275\223\350\014\275\326h#>1\017\362<\216\251\256=\235\352\006>\315\321\014\276\234\221\246<K\363\213=?\316\274<\3635\273\274\037n\034<z\025:>:d;>]\3216=E\217\355\274\345\300Z=\271(\022\276\335\357#>\251\275\362=5\360\230=[\2246\276Sx\343;\260~\200\275\362\245\335=\306$\020\276\245\014\013>\211\272\335\275\002W\252=\0276H\2758\341\230=f\331\214=\235yN<L\013 \275\346XG<6\005/=1\337x=\'\277\247\275|9S>+\033\226\275\212#\036>w\250\271=\212\025\366=\232\252\377<\304R\025=\342\365\307<\233)\246\275\3778\321<x\3317=\323X\017\276CjL=;jN\275\203\025H;\235\260\002=\252Z\270<\014\2445\275\210\326\365<\346?\224=\321l>=\316\225\370\2754rA;$\256\236\2747\0303=L%\322=\001\0207\276\256\034\252\275\334l\254\275\233Ml\275m!u\271\"`\000\275v\2200<HQ\n<U3\227<-\363b\276m\321+=\001\333\n\276\357\372\205=SO\003\275\233\213}\272\234\035\304=\227\253\310\275<\210\277\275B\263\250\275\325\361^\276\306fX=\\\361\037\275\303L\276=:\265y\275w\020d\275\377\304\006>\"\271w=6B\306\274T\354$=\307\312\360=\306\254@\275/\243}<\276nV=\315t\324=\0041\247\275m4\374\273u\360\215<\252\017@\275\027\230~<\271\\\r>\317N\243\275\203\2720\274L\312\007>;\303\204>\303gQ\275\r\262*\274\366\313\216<P\322V=#\256\204=\326j\215<|F\352\274g;\267\275GH\246\275\001Kr\275\371\217\231;\253\020n\275\005 \346\275^\227{=\\w,=YT\326\274\205\353B>c\337s\273$\204\246\275\213,\321=5j\'>\214^\302\275\037\220\r>%\361\366=h\177h=>\226R>\344\217\220=\"\245\024\275\255[\245;\245\245\215<\254G\332\275\004-\016>P:\000\275\356:\021>\320\362l<\351\035\213\275\215\221\234=\314\223\356\275\345\237/>\253\364\374\275\006\\\223\274\265\031\265=\223\340\017>7QL>Iz\351<\trT=\367\231\311<\372\345\214<SBT=\305\360\335\275\332$w\275p\344c;gA\000\276gx\267\275\327gc\275\231;\210\275v0\025\2765U\331<\320\014\234\275\001\342\330=Y\224\027>\001\350\222=P\nc\2752\210\032=v\235\201\275\031\000\213<<\362G\276\303\037N\276\023\037\327\275Bj\256:sn\354\275`M]=M\035\245;\003j\317\275\361\217\215=\230\204\004\2760\350\242\275\345\003\005\273O\237\277\275\003\013\272\275\272H\201=WY\246;s\0079\275K>;=\226\255\234=W:\276;s\217\023;\034\356\265=\253\221\235=9S\214\275\214\231h\276\206\366\0279\3219\350<]\253\236=\315\374\271\275\376<9\273\353?\200\275\256)\316=Jr\361=w\016F<\355\211\321\274i\376\205=@\353\267=+\354\242=\347\245\317=\305\007I\273F\231\202\275Qz\265=\312+\330\275\207\"\332\275=t \275J\335\031<vZ;\275\234<\020\275L\0313\276\231\332\320=b^/=\206F\213\275\010\000\247\274;\t\370<tM\307=\202{\260<\324\013\322=}\340\314=\266\336m\274\333\313\304=\240\261`\275`\227\t\275\263\002\243\275\260\263`\275\024\356\354;?yd=\0024\310<%~7\275\233)\300<\234\313v=\356\201R=\240|\317\275\032\262\033\276`7P\275pz\250\275\201\215E>\341,\377;\210\342\231=\343)5=p,\323\275\331\257\224\275\206]\240\275\371\206\341=\277gb=\016\316\031\275\3515\342<&\274%\275SoX\275\327\205\r\276\325\272\224\275n\374\252<\360\274\026>\342\351z=I:\333\275\244B\233\275S~3\276\t<\274<\356T\210=#Fq\275\326u\000\2742G\r\275\344\260b=je\t\275\0366\331<\272\002)=g\312\201=\217\037\354\273\004\351\276\274~o*=\271\270\273=\324\316\005\276\3751\022>*\325\n>\354Rc\2758\r=\275\237\242\342\274a\375\n\2765\217\000\276<\027\265=\201t\027=\314E\212=\247\363\336\275e0X=mK\230\275\227\200\303=bp\225\275\241\310)=\342?\252\275Z\016\033<b\316\336\274\036we>D\242\204\273\220-+\276a9Z=N\034\206=\366\226\267\274\2417+;\271*\245=\202Z\243=\371\311b\274\253\005\022\275\233\017\213\274\317T\323=\346\325P=\331L5\276\372\016\r=\243$.>\352\252\224\274\370$\037\275ZJ\">\227\217\024<\277\021\326;\006\307\211=\370\004\233\275\360Ux\2762/\025\275\036\207\224==\277k\276X\323\027\274aB\306\274\335\253:=\376\233o=SL\247<X\247\002\275\004\253D\276.\346\325<s\235C>\302\316\215=6\002\337<<E\244\275\255\207\014\276\347v\316\275\362\343\025<N\321\274\274\312\366\313\275(\346J<q\177E=%\324\342=\221\222\347<\3352\237\275#]\017>\236\256U=!?\352=\232<\227=\345l\275<\345\025\276=\244q\225\274\267\'\263\274\336\"1\276O\n\250=\245Y\246;x\322\036=\265\210L<a\232\027=\263\0100;`\2324\275\2363\033>\302\204\342=\342\305\333=-\013\214\274j\027.>g\255\r=\261l\347;]H\334<\204d6;>Lc\275\014O\257\274\201-\303\275S\270F\275q\331\210\275\245\201\272\274_D$=\240\031x\274\304\203\326\275\201\305M\273\211\207\204\273\277\034\004>NS\375=\205w\325=\277\\\007\275 \263\306<\270\361%=\315\367V=\341?\030\275\366\256\257=\375N\004\276\320\332\026>\335\016\026;\375\305S\275\223O}\275\225\273%\2746\n*\276\nKm=\270\301i<\266\242>=\313\001&=\267~\243\274f\004q;\030\363+=\356y\207>\326\363\234\275y\004+>\341d\205\275\344\321\210<\347\303\032\276k\356\227=\343 \004\275&\246\224<\247\030\005>\261r\006\275z\005\341\274e>s>a\275\226=\271\241<>\023\347A\276\326D\265\275\021\223^=\t\224G:\375\273%\276|X\010;R\006\215=\212*`\276\022o\215>\311\3277\275\204v\322<\221j\352\274\327\022\344=\033\235j=\203ST=\021\210\206\274\255\230R:\326\206o\275\332\371\003>n\264\305\274\202BM=\261\226g\275_j\327;\250,\302=+:\211\275\304\250\225\275wK\177<V\345I\275y\027\361:K\203[>\020\334B<s\344\245\274\351\t==3\3429=\345^\023<\004*\314=\004ea=*\232\204=%\272\027\273\225h\264=\241\337\302=X\363\272=M\3622\275_\222\005\275Ki\300\275\224\264\376\274%^\324<\331T\025>V\177\223\275\247\354\266=m\003\370=~/\216\275\324\300\342<H\023\251<|-\257<\331\205v\274\305se\275\353\236#>\3020|=\214H\377\274\216rS=\037.\200:\247\361\357\274\356:\215=\375\247\331\275\033Z\022\275\377D\343\272Jx\247=\017\207\367\274\312\"2\276.\035\031\275\227\0038=%\004\211>1\237I\276\252\374O\275\210\363\305<%\371\274\275\205-\226=\356\364\027\276SUD<b\t\245\275=\301\275=\230\310\252\275\213\222,\275\227\256\202=d]\322\275P\365\375=H\3327\275b\014\373\274[\010a=\320,\360\275\277\371Y\274n%\024\275M\215\266\275X\303\243\2747\273\027\275\232\364s<\030w\020\275\352\373N\274\327\207\313\275k\310\006=e\027\026>\250D\r\275\332\017f=\221*\003>\3111\037=+y\367\27407\320\275\212\334]\275Y\216\022\275\376\217\365\273%\320\344=Om\201\274L &\275\007\010\273\274\025\230\000\276O`\207\274\236\310\330\275\242\331\024\276\274u\305=\372J==0\355\013\275p\037\250<$\232\016=\020\313\323<\247>\251={f\335=\316\023.>\\*/\276\021>\027\276\333\201\307\275;\363\252<\246}\237;h0R\275l\315\031>y\331t\275a\322I\276wu4>\001\272\364\274\017\354&\275J~j\275\320\310\246\275RH\303\275uj&>,&\007\276\307`\017>\337_\257\275\275Mf=\274\366u\275\017\367\220=\030\'\200=o\351\256=+\177\237:\357U\250\275\221\310\024\275\005\377\210<\363oe<\263cF=\205h\310\275\300\036a\275\371!\213\274\204\020\312\275\230+\304\275\216\313D\275\t\233==\227\3322\276\020\244\302=\266\2708=2\\\\\272_\357\224\275\236+\222;x\213\022>\3468\251;\236\305\032\275\210\240\362\275\002\377W=S\377$\275\266\373\314\275\225j\237\274\022P\220<m\352\314;\277\354\314=\353\343\233\275&~\272\275\266n\302<\203\374\211;\242\375@\2754;\n=\266!\313=ki\367=\233\240\325\275\302u*\275A&\010>A\254\335<851>S\032\320\273M\'\276=#P\365\273\377\021\215\275\236\336h<\313\356\202=\325\027\376\274\027\326\315=be\206=\r4V\275(\327\204=\313\215\214<\232$\225\274\364\177\237\274\242\342\036>?\017\262=;\353;=\357\026\001\274o\037\231=!\246\270\274\204\2176\276\307\023\351<<\"D<\037[\032=\026\305\341<\205:\230\275\020K\231\275\003\336\006\276eq\302=MH\205=\\\225\250\274\356\214\300=A\322>=\202\020\312\274L\355\030\275\366\204=<\002,\267\275!\033\243<\310\221\006\275\321\030\n>\004k\337<\374f\375<\2313\002> >\207>y0\256=&\354\234=\263\001\035>\273^\363\275\223g#\275v+\356\275\205\345\314=\002\327\177\275\201\177@<}\240\315=\252\346\313=\031\036\267\275\332\027\274\275R\021#>\367\251\024\276p\275_=\254jz=\322\221\241=\002\032\001>\266\275\022=\254/\246\275=\365X\275\253V|\275\2701\010=\307R\375\275\376\005q\275\010a\204\274\265\266\013\276\275`\034>=2\343\275l\207n\276B}\362\274\3076\374=D\003R:\005A\031>S\253\017>\251\334m\273j\227J\273G\375\222\275\3762\274;\006\230\t>k\330\246\275\025m!\275cs,=1\263\365<\021\375>\275\006\222\034\276\201\303\317=\300\376\313=\245\374U\274\006 \225=[?;<O\321;>D\272\234\275\030\032\345\273@\273\305\275\007\t\225\275\366\251\317=w\367\313\274\211\316\236\275\\\275\321=_ \250=CSk=\302m\266\275\246\362;\275,\030\324=\026\031\230<\246<\016\275\333\026\223=<\230\204\2758I\211=H38<\256-\036>\305u\327=\340\363\300\275\317\350q\274N\366\320\275I\255\360:U\277\254\275\352m\276\275m\254\205\274\254\213#\275\206\2174\275\306;\370\275r\331\013\276\366+\250\274\314\030\037>\021\307\217\275\001(R>}\004\030;O\3303>\337\203\241=hv\340\274\323F8=U_P\275{T%\276\002M\275\275x`\265\275O\246\216\275\241\0262\276m\004\367\272%\334\201=\010$\260=\022\314\337\274\007\'\206<\360>\212<\260wb\275*\311\002\275\362k\n>\374\226V\276(\024\277\274\275\346\240=\277\345%\275!^y\275u\263L<\211)J=\0300\301<\211\r\256\274\235N\242\275{D\311=\256\256H\276\317\013#=\336\306\030>\200\206\243=\346\323X:\325\235s=\271n\270<\335sG=\351\375\007=i\216\001>\321\370w\275\006\207\020>\nu8\275.e\202=\367\234\326\274\315zl=\202\202\'>\237A\332\274\350z\245\274\236\002\363<\242|*>\326\034\253<\241))\275\211]\216=\240\0256>\334\024k;LT\275=q\273\035\276]D\000<\274\237\321<\326\214\305\2758\r\264\275\250_\300=\007\273\244\275\362`&>\374\022C>\"C\020=\010\216:\275~&\006\275\272l\336=\353\224\361\274\346\301\276=\252g\021\276J\250-=\r\022g\275\310#\231=\306\037Q\275\273\217\256=\316\254*\275\271y/\275\275\364\374\275\310\245\'=\361\275\r\276N\274\322\275\231\031\340=(\251\013\274\260k)\276\331\220\366\275*\356m\2750\246\000\275\032i\316<D\242\037\274\005\270!\275k\r\353\275r\252p=\230\224\213<\231.\005\2758\330B>\345\331d=[\305\317\2720\327\237\274\3263\345\275\320\271\252= \352\342=ZSK\275\360\212\254=\345\225d\275\200\034!<}Y\004>v\3759<|\217\325=\207\222N\275\376\3025=\304\206\365\274\226\353\273\273\034\204{\274N^\244\275\0135\210<c\313V\275\245\235\024=\334~Q\275G\301\026\276\345\020\006=\376\356\'=\373\204\216<Z\354\214\275\203\215\256\275l&\007\275\327\257\272\275\257\302\354=\357\037\233<v\037\247<\353\027,<&G\000\276U\033\231=\032k\246=U\\\245\273\323g\224=\307r\231\275\336\376\256=\223o[=\3373\275<&]\204=\241\347u\275\311\347\020\275\014\020#>\203N\276=Vu =\243\016\227=\030F\031\276\377\363\347\275\321$0\275[\274\360;\343\243\354=4\272\032=\362\257\367;\300[\241=8\332\205=uF\224\275>\277\224=7\232\000=wMT>/\316T\275_^e=?\007\246\274\250?\374\273tAh\275\225tK\276\226\0036;\031Y\333=\234\315\t\276k\347\206=>2\010\276\220\240\323=\353\222\010=\325\030\355\275\222\356\'>\210\360\212=!\017\207=eo\027\273\003\214d>\336|\205=\374 \323=\212>\t\275\250]\320=\262\031\256=\214k\220=\336B\354\275=,\307<\2102\237\275\330\362\236\275@J*\274\004\246\030==\024\025\275\231J\273=\323\\\264=\2177A\275\221E\327\273\t\225)=\347V\266=\237$\\=Ar\263\275%C\240\275\354\245N\274\341\247S\276\267\243#=\244U\212\275\257\333\374\275\316\325\207>\373\335\260<z\343]\275}\202\203\275\336\267\013\274\372\013\007>\017W\027=\2143\322\274S\312\217=\237v\247<\005S\364\275g\030L=2\352\213\274\035Y\013\275h\335\025\276V0\377\274/\277\020\276\000+[\275ME\031>\221\274\331=\266\t\203==\341-<\222S\204\275\'\206\262=\216_\317=\"b\344<\250ku=\377A\037=2\037\237\275\271\254\n>\030\331\300\275\360\343%=\\\024\211<\334\312\224\274\034\332M>\234A\017<\220/\345=\274&\316=\251 %\275 V\255<\324\223\003>\3147\261=\271\002\035=\261\031/\275\211_\027<\202\3419>\357=\211=\r\346d\275\333k\343\275I\177\034\275\031\361\245<{\372\277=2B\025\276\263\010\240\274\025\366\365=xI\246\274R\227\262\275\n\024G=\210\023G\274\014\213+=\256\337\212\275k \247=\346[\207\275\254\026|=\347sB\276uu\246=u\246\201\275a\260&=\004\255\267=\256\014\301=\376\027\t\2753\233\\\274BKL\275\250Ol\275A\017N\275\237~\014>\254\277<\275\203\017\307\274\315\205\004\276\326\316[\275\344)\002\274\266\344\360\275Ij\234\2750\300\244=\214\347j\275t\302\332<\225\327\204<\316\222\031\275\201W\321\274\221)\021\276\032\020\347\275\312\010\013>`D`\275\331(\230\273PF\241\2749J3\276\371Y\034\273\347\241L;\004)M\276\302z\274=\256\226\003\276\245\361S=\216\241\201=\223\271\324;p\034\246\273\024$2\275Zb\374\273\333u\366\275\316i\234=\217\362\275\275\000\300\305\274\2139\364\2757\364\006=2\265\006=<]v\275\350c\206\275\3312&\276\351\307V\276\243\244W\275\013\221 =\035\334\304<\377\345\201\275&\320\321=3\264\221=\0249\344\275\2752\215=\330Uz\273\277&\271=\305\2274\276\005\030\020>T9\277\275\256.E>,\201|=!6|=\376\254\024\275`\322\200<DU\316=\215\371\217=\\k\001\275`r\345\275x\265\247;\346w\374\274\026Tg\276\312\322.\275\321\035\024>\3030\346\275\344\255Q\275\"\246(9Jo\002\276\017\333\253\275\240r\027=c_y=#\307}\273\316\200I\275\337\351\217\274e\306\250<\263\014\276=\365n\031>\222:\240=$\005\264\275\341\251~=\272E:=\270\234_\275\325)\020\276\0026s\271\277\204\356=Sv\246=\367\256\002>\312Q\032\275\034\205\363=6\340m\275\253\244?>\212\320\222\275{\251\272=\367\203\210\275\016\232\311\275(\255\260;\237)\360=0\377\244=_K\366=\353n\034\275\213\205A\276\244\274\210<\000\236\200;\254\240\222\275q#\371=\317V\235=\035\337\274=M\245z\274\017\323%\274R\206\201<k\036\242=\322_\352\275\220\234C\275\316\260\013\275\207\214\306<\"\214\002>\tp\310\274v=\321=\215Mr\275\221\177\272<\014\001\014=\374\210\375\275W\377m>q|\246<\025u\230\275\333*\377=\236\"\221=\213s\271\274\267\233\333\275\207V\000>-\205P=W\231\375=\305~\301=\354\214A=\323\373\r\275\342\332\225\275#\373?>%\212\017>T\346\202\275\313n\230<\206r!\276\2528\207>\025E\254\2735\275:\275\036\034\004;EK\235\275\361\'\004\276\365O\323\273-\010\232=\333b\261\275\350\027\212=)\330\032=\360}\024=\201\030!<F\344(=\257R@<2N\205<\331*Y<\271\t\245\274\245oG<K\352O\274\331\300\257\274\373\366-\276\010\214\005\275\006\004(=X\226\317=\374\233\220<\017\032\373\272l\300\024\276\267\254\255=\3645\204\274\334\\\205<7-W<\372\356\363\275cp\335\275-z\331\2759\003\006\2763\004@\275\224\271\206\275\245)W\275\375\241\237=\323\031F\274\307\366\260=Nl\222\275/,\214<a$\237\275\021V\202=_\366\002\275\004\356A7\300\317\244=\366O\222\275\222\253\247\275\314\343*\276\254\341S\275\356\256\223=\337\225\245\275N\030\206\2731\203\006>KL\031>X\325\271\274\230\353\213\275\035\t\242=%pI\275\372\231\334\275\352\354\215\275m\206;\275\034\227\020=\313\021\217=\217U\031\276\233u\024=\026\343&\276\343\026\323\275\200/\260\275\316[\302\274\357z\354\275\004\0043<\330\336\316\275\337L\003>\311m\r\276R\343\225\274\2341\344=\227\177{<z\327\212\275\2303\346=mJ\004>\326\200\351\275\332\234h\275\016\016\003\274\237h\022\275{y\376\274\356\257V>\263\371\316\275\3314\215\275\372\005n=\\U\007\275\220&\260\274@\276~\273^C\000\276\245\261\227<\215\013\037=\252G\227\274UU\033\276|\356\200\275\370\031\207\274vj\226\274\272\027A\275K\316\005=\330\361\203\275\337\316\254\273\204b5\275B+\342\274\306\327 \276^\274\374<r~\305;\013\242\252=\213@7\276M\333\344\2749\225\357\274\336\211;\274\351\\\262\275t-;=\310\206\021=\030\303\222\2755\372l<\010\3138>O!\304=\261\005\026\276\031\322\250\275\312\216U\275\343U\244<{\327v\275\257\"\240=PBr\274\310\322\200=\344\313G<\267\017 \274\360h&=;\247\240\274X\263\030>\365\022\220\275\016U\310\275\"6\371\274, \226\275\n\266k>\306\271\350=\035UN\275\345B\270=\"\305\360=\2538\204\275\316\217]>\002x&\274w\002(=\225Q\353\275\327~A\275\371-\263<Ei\255=\201\365%>\001\010\213=\230\226\261\275\331\262\211=\013rJ=\357+\224\275\371\3362>\273IT=\367?\r=C/\256\275\252{\241\275g\032\217\2753m\024\276\324?~=\251\374\270\275\024\317\3469\347S\216<\250\022\301\275p\316w=.\025\352\274]\230\325=\234\000\327\273\345h\262\274\230\335\355<\322\247M=\006\017\226\273\311\360H=\223\270\265=\036\000\004\276\225\242C\2763-\376\274\n\333\265\274\272\371`;\313\253g=\221+\013\275\234\017\362=>Y2>\337|\377<\330~d\276\030<[=\240\r\030\276\323\021i=\026\236\320\275\'\023\310=\225\017<\276\367\216%<y\263\214<$t\201<\227MV\275k\372\257<"
      }
    }
  }
}
node {
  name: "lstm_1/recurrent_kernel"
  op: "VariableV2"
  attr {
    key: "container"
    value {
      s: ""
    }
  }
  attr {
    key: "dtype"
    value {
      type: DT_FLOAT
    }
  }
  attr {
    key: "shape"
    value {
      shape {
        dim {
          size: 32
        }
        dim {
          size: 128
        }
      }
    }
  }
  attr {
    key: "shared_name"
    value {
      s: ""
    }
  }
}
node {
  name: "lstm_1/recurrent_kernel/Assign"
  op: "Assign"
  input: "lstm_1/recurrent_kernel"
  input: "lstm_1/recurrent_kernel/initial_value"
  attr {
    key: "T"
    value {
      type: DT_FLOAT
    }
  }
  attr {
    key: "_class"
    value {
      list {
        s: "loc:@lstm_1/recurrent_kernel"
      }
    }
  }
  attr {
    key: "use_locking"
    value {
      b: true
    }
  }
  attr {
    key: "validate_shape"
    value {
      b: true
    }
  }
}
node {
  name: "lstm_1/recurrent_kernel/read"
  op: "Identity"
  input: "lstm_1/recurrent_kernel"
  attr {
    key: "T"
    value {
      type: DT_FLOAT
    }
  }
  attr {
    key: "_class"
    value {
      list {
        s: "loc:@lstm_1/recurrent_kernel"
      }
    }
  }
}
node {
  name: "lstm_1/Const"
  op: "Const"
  attr {
    key: "dtype"
    value {
      type: DT_FLOAT
    }
  }
  attr {
    key: "value"
    value {
      tensor {
        dtype: DT_FLOAT
        tensor_shape {
          dim {
            size: 32
          }
        }
        float_val: 0.0
      }
    }
  }
}
node {
  name: "lstm_1/Const_1"
  op: "Const"
  attr {
    key: "dtype"
    value {
      type: DT_FLOAT
    }
  }
  attr {
    key: "value"
    value {
      tensor {
        dtype: DT_FLOAT
        tensor_shape {
          dim {
            size: 32
          }
        }
        float_val: 1.0
      }
    }
  }
}
node {
  name: "lstm_1/Const_2"
  op: "Const"
  attr {
    key: "dtype"
    value {
      type: DT_FLOAT
    }
  }
  attr {
    key: "value"
    value {
      tensor {
        dtype: DT_FLOAT
        tensor_shape {
          dim {
            size: 64
          }
        }
        float_val: 0.0
      }
    }
  }
}
node {
  name: "lstm_1/concat/axis"
  op: "Const"
  attr {
    key: "dtype"
    value {
      type: DT_INT32
    }
  }
  attr {
    key: "value"
    value {
      tensor {
        dtype: DT_INT32
        tensor_shape {
        }
        int_val: 0
      }
    }
  }
}
node {
  name: "lstm_1/concat"
  op: "ConcatV2"
  input: "lstm_1/Const"
  input: "lstm_1/Const_1"
  input: "lstm_1/Const_2"
  input: "lstm_1/concat/axis"
  attr {
    key: "N"
    value {
      i: 3
    }
  }
  attr {
    key: "T"
    value {
      type: DT_FLOAT
    }
  }
  attr {
    key: "Tidx"
    value {
      type: DT_INT32
    }
  }
}
node {
  name: "lstm_1/bias"
  op: "VariableV2"
  attr {
    key: "container"
    value {
      s: ""
    }
  }
  attr {
    key: "dtype"
    value {
      type: DT_FLOAT
    }
  }
  attr {
    key: "shape"
    value {
      shape {
        dim {
          size: 128
        }
      }
    }
  }
  attr {
    key: "shared_name"
    value {
      s: ""
    }
  }
}
node {
  name: "lstm_1/bias/Assign"
  op: "Assign"
  input: "lstm_1/bias"
  input: "lstm_1/concat"
  attr {
    key: "T"
    value {
      type: DT_FLOAT
    }
  }
  attr {
    key: "_class"
    value {
      list {
        s: "loc:@lstm_1/bias"
      }
    }
  }
  attr {
    key: "use_locking"
    value {
      b: true
    }
  }
  attr {
    key: "validate_shape"
    value {
      b: true
    }
  }
}
node {
  name: "lstm_1/bias/read"
  op: "Identity"
  input: "lstm_1/bias"
  attr {
    key: "T"
    value {
      type: DT_FLOAT
    }
  }
  attr {
    key: "_class"
    value {
      list {
        s: "loc:@lstm_1/bias"
      }
    }
  }
}
node {
  name: "lstm_1/strided_slice/stack"
  op: "Const"
  attr {
    key: "dtype"
    value {
      type: DT_INT32
    }
  }
  attr {
    key: "value"
    value {
      tensor {
        dtype: DT_INT32
        tensor_shape {
          dim {
            size: 2
          }
        }
        tensor_content: "\000\000\000\000\000\000\000\000"
      }
    }
  }
}
node {
  name: "lstm_1/strided_slice/stack_1"
  op: "Const"
  attr {
    key: "dtype"
    value {
      type: DT_INT32
    }
  }
  attr {
    key: "value"
    value {
      tensor {
        dtype: DT_INT32
        tensor_shape {
          dim {
            size: 2
          }
        }
        tensor_content: "\000\000\000\000 \000\000\000"
      }
    }
  }
}
node {
  name: "lstm_1/strided_slice/stack_2"
  op: "Const"
  attr {
    key: "dtype"
    value {
      type: DT_INT32
    }
  }
  attr {
    key: "value"
    value {
      tensor {
        dtype: DT_INT32
        tensor_shape {
          dim {
            size: 2
          }
        }
        tensor_content: "\001\000\000\000\001\000\000\000"
      }
    }
  }
}
node {
  name: "lstm_1/strided_slice"
  op: "StridedSlice"
  input: "lstm_1/kernel/read"
  input: "lstm_1/strided_slice/stack"
  input: "lstm_1/strided_slice/stack_1"
  input: "lstm_1/strided_slice/stack_2"
  attr {
    key: "Index"
    value {
      type: DT_INT32
    }
  }
  attr {
    key: "T"
    value {
      type: DT_FLOAT
    }
  }
  attr {
    key: "begin_mask"
    value {
      i: 3
    }
  }
  attr {
    key: "ellipsis_mask"
    value {
      i: 0
    }
  }
  attr {
    key: "end_mask"
    value {
      i: 1
    }
  }
  attr {
    key: "new_axis_mask"
    value {
      i: 0
    }
  }
  attr {
    key: "shrink_axis_mask"
    value {
      i: 0
    }
  }
}
node {
  name: "lstm_1/strided_slice_1/stack"
  op: "Const"
  attr {
    key: "dtype"
    value {
      type: DT_INT32
    }
  }
  attr {
    key: "value"
    value {
      tensor {
        dtype: DT_INT32
        tensor_shape {
          dim {
            size: 2
          }
        }
        tensor_content: "\000\000\000\000 \000\000\000"
      }
    }
  }
}
node {
  name: "lstm_1/strided_slice_1/stack_1"
  op: "Const"
  attr {
    key: "dtype"
    value {
      type: DT_INT32
    }
  }
  attr {
    key: "value"
    value {
      tensor {
        dtype: DT_INT32
        tensor_shape {
          dim {
            size: 2
          }
        }
        tensor_content: "\000\000\000\000@\000\000\000"
      }
    }
  }
}
node {
  name: "lstm_1/strided_slice_1/stack_2"
  op: "Const"
  attr {
    key: "dtype"
    value {
      type: DT_INT32
    }
  }
  attr {
    key: "value"
    value {
      tensor {
        dtype: DT_INT32
        tensor_shape {
          dim {
            size: 2
          }
        }
        tensor_content: "\001\000\000\000\001\000\000\000"
      }
    }
  }
}
node {
  name: "lstm_1/strided_slice_1"
  op: "StridedSlice"
  input: "lstm_1/kernel/read"
  input: "lstm_1/strided_slice_1/stack"
  input: "lstm_1/strided_slice_1/stack_1"
  input: "lstm_1/strided_slice_1/stack_2"
  attr {
    key: "Index"
    value {
      type: DT_INT32
    }
  }
  attr {
    key: "T"
    value {
      type: DT_FLOAT
    }
  }
  attr {
    key: "begin_mask"
    value {
      i: 1
    }
  }
  attr {
    key: "ellipsis_mask"
    value {
      i: 0
    }
  }
  attr {
    key: "end_mask"
    value {
      i: 1
    }
  }
  attr {
    key: "new_axis_mask"
    value {
      i: 0
    }
  }
  attr {
    key: "shrink_axis_mask"
    value {
      i: 0
    }
  }
}
node {
  name: "lstm_1/strided_slice_2/stack"
  op: "Const"
  attr {
    key: "dtype"
    value {
      type: DT_INT32
    }
  }
  attr {
    key: "value"
    value {
      tensor {
        dtype: DT_INT32
        tensor_shape {
          dim {
            size: 2
          }
        }
        tensor_content: "\000\000\000\000@\000\000\000"
      }
    }
  }
}
node {
  name: "lstm_1/strided_slice_2/stack_1"
  op: "Const"
  attr {
    key: "dtype"
    value {
      type: DT_INT32
    }
  }
  attr {
    key: "value"
    value {
      tensor {
        dtype: DT_INT32
        tensor_shape {
          dim {
            size: 2
          }
        }
        tensor_content: "\000\000\000\000`\000\000\000"
      }
    }
  }
}
node {
  name: "lstm_1/strided_slice_2/stack_2"
  op: "Const"
  attr {
    key: "dtype"
    value {
      type: DT_INT32
    }
  }
  attr {
    key: "value"
    value {
      tensor {
        dtype: DT_INT32
        tensor_shape {
          dim {
            size: 2
          }
        }
        tensor_content: "\001\000\000\000\001\000\000\000"
      }
    }
  }
}
node {
  name: "lstm_1/strided_slice_2"
  op: "StridedSlice"
  input: "lstm_1/kernel/read"
  input: "lstm_1/strided_slice_2/stack"
  input: "lstm_1/strided_slice_2/stack_1"
  input: "lstm_1/strided_slice_2/stack_2"
  attr {
    key: "Index"
    value {
      type: DT_INT32
    }
  }
  attr {
    key: "T"
    value {
      type: DT_FLOAT
    }
  }
  attr {
    key: "begin_mask"
    value {
      i: 1
    }
  }
  attr {
    key: "ellipsis_mask"
    value {
      i: 0
    }
  }
  attr {
    key: "end_mask"
    value {
      i: 1
    }
  }
  attr {
    key: "new_axis_mask"
    value {
      i: 0
    }
  }
  attr {
    key: "shrink_axis_mask"
    value {
      i: 0
    }
  }
}
node {
  name: "lstm_1/strided_slice_3/stack"
  op: "Const"
  attr {
    key: "dtype"
    value {
      type: DT_INT32
    }
  }
  attr {
    key: "value"
    value {
      tensor {
        dtype: DT_INT32
        tensor_shape {
          dim {
            size: 2
          }
        }
        tensor_content: "\000\000\000\000`\000\000\000"
      }
    }
  }
}
node {
  name: "lstm_1/strided_slice_3/stack_1"
  op: "Const"
  attr {
    key: "dtype"
    value {
      type: DT_INT32
    }
  }
  attr {
    key: "value"
    value {
      tensor {
        dtype: DT_INT32
        tensor_shape {
          dim {
            size: 2
          }
        }
        tensor_content: "\000\000\000\000\000\000\000\000"
      }
    }
  }
}
node {
  name: "lstm_1/strided_slice_3/stack_2"
  op: "Const"
  attr {
    key: "dtype"
    value {
      type: DT_INT32
    }
  }
  attr {
    key: "value"
    value {
      tensor {
        dtype: DT_INT32
        tensor_shape {
          dim {
            size: 2
          }
        }
        tensor_content: "\001\000\000\000\001\000\000\000"
      }
    }
  }
}
node {
  name: "lstm_1/strided_slice_3"
  op: "StridedSlice"
  input: "lstm_1/kernel/read"
  input: "lstm_1/strided_slice_3/stack"
  input: "lstm_1/strided_slice_3/stack_1"
  input: "lstm_1/strided_slice_3/stack_2"
  attr {
    key: "Index"
    value {
      type: DT_INT32
    }
  }
  attr {
    key: "T"
    value {
      type: DT_FLOAT
    }
  }
  attr {
    key: "begin_mask"
    value {
      i: 1
    }
  }
  attr {
    key: "ellipsis_mask"
    value {
      i: 0
    }
  }
  attr {
    key: "end_mask"
    value {
      i: 3
    }
  }
  attr {
    key: "new_axis_mask"
    value {
      i: 0
    }
  }
  attr {
    key: "shrink_axis_mask"
    value {
      i: 0
    }
  }
}
node {
  name: "lstm_1/strided_slice_4/stack"
  op: "Const"
  attr {
    key: "dtype"
    value {
      type: DT_INT32
    }
  }
  attr {
    key: "value"
    value {
      tensor {
        dtype: DT_INT32
        tensor_shape {
          dim {
            size: 2
          }
        }
        tensor_content: "\000\000\000\000\000\000\000\000"
      }
    }
  }
}
node {
  name: "lstm_1/strided_slice_4/stack_1"
  op: "Const"
  attr {
    key: "dtype"
    value {
      type: DT_INT32
    }
  }
  attr {
    key: "value"
    value {
      tensor {
        dtype: DT_INT32
        tensor_shape {
          dim {
            size: 2
          }
        }
        tensor_content: "\000\000\000\000 \000\000\000"
      }
    }
  }
}
node {
  name: "lstm_1/strided_slice_4/stack_2"
  op: "Const"
  attr {
    key: "dtype"
    value {
      type: DT_INT32
    }
  }
  attr {
    key: "value"
    value {
      tensor {
        dtype: DT_INT32
        tensor_shape {
          dim {
            size: 2
          }
        }
        tensor_content: "\001\000\000\000\001\000\000\000"
      }
    }
  }
}
node {
  name: "lstm_1/strided_slice_4"
  op: "StridedSlice"
  input: "lstm_1/recurrent_kernel/read"
  input: "lstm_1/strided_slice_4/stack"
  input: "lstm_1/strided_slice_4/stack_1"
  input: "lstm_1/strided_slice_4/stack_2"
  attr {
    key: "Index"
    value {
      type: DT_INT32
    }
  }
  attr {
    key: "T"
    value {
      type: DT_FLOAT
    }
  }
  attr {
    key: "begin_mask"
    value {
      i: 3
    }
  }
  attr {
    key: "ellipsis_mask"
    value {
      i: 0
    }
  }
  attr {
    key: "end_mask"
    value {
      i: 1
    }
  }
  attr {
    key: "new_axis_mask"
    value {
      i: 0
    }
  }
  attr {
    key: "shrink_axis_mask"
    value {
      i: 0
    }
  }
}
node {
  name: "lstm_1/strided_slice_5/stack"
  op: "Const"
  attr {
    key: "dtype"
    value {
      type: DT_INT32
    }
  }
  attr {
    key: "value"
    value {
      tensor {
        dtype: DT_INT32
        tensor_shape {
          dim {
            size: 2
          }
        }
        tensor_content: "\000\000\000\000 \000\000\000"
      }
    }
  }
}
node {
  name: "lstm_1/strided_slice_5/stack_1"
  op: "Const"
  attr {
    key: "dtype"
    value {
      type: DT_INT32
    }
  }
  attr {
    key: "value"
    value {
      tensor {
        dtype: DT_INT32
        tensor_shape {
          dim {
            size: 2
          }
        }
        tensor_content: "\000\000\000\000@\000\000\000"
      }
    }
  }
}
node {
  name: "lstm_1/strided_slice_5/stack_2"
  op: "Const"
  attr {
    key: "dtype"
    value {
      type: DT_INT32
    }
  }
  attr {
    key: "value"
    value {
      tensor {
        dtype: DT_INT32
        tensor_shape {
          dim {
            size: 2
          }
        }
        tensor_content: "\001\000\000\000\001\000\000\000"
      }
    }
  }
}
node {
  name: "lstm_1/strided_slice_5"
  op: "StridedSlice"
  input: "lstm_1/recurrent_kernel/read"
  input: "lstm_1/strided_slice_5/stack"
  input: "lstm_1/strided_slice_5/stack_1"
  input: "lstm_1/strided_slice_5/stack_2"
  attr {
    key: "Index"
    value {
      type: DT_INT32
    }
  }
  attr {
    key: "T"
    value {
      type: DT_FLOAT
    }
  }
  attr {
    key: "begin_mask"
    value {
      i: 1
    }
  }
  attr {
    key: "ellipsis_mask"
    value {
      i: 0
    }
  }
  attr {
    key: "end_mask"
    value {
      i: 1
    }
  }
  attr {
    key: "new_axis_mask"
    value {
      i: 0
    }
  }
  attr {
    key: "shrink_axis_mask"
    value {
      i: 0
    }
  }
}
node {
  name: "lstm_1/strided_slice_6/stack"
  op: "Const"
  attr {
    key: "dtype"
    value {
      type: DT_INT32
    }
  }
  attr {
    key: "value"
    value {
      tensor {
        dtype: DT_INT32
        tensor_shape {
          dim {
            size: 2
          }
        }
        tensor_content: "\000\000\000\000@\000\000\000"
      }
    }
  }
}
node {
  name: "lstm_1/strided_slice_6/stack_1"
  op: "Const"
  attr {
    key: "dtype"
    value {
      type: DT_INT32
    }
  }
  attr {
    key: "value"
    value {
      tensor {
        dtype: DT_INT32
        tensor_shape {
          dim {
            size: 2
          }
        }
        tensor_content: "\000\000\000\000`\000\000\000"
      }
    }
  }
}
node {
  name: "lstm_1/strided_slice_6/stack_2"
  op: "Const"
  attr {
    key: "dtype"
    value {
      type: DT_INT32
    }
  }
  attr {
    key: "value"
    value {
      tensor {
        dtype: DT_INT32
        tensor_shape {
          dim {
            size: 2
          }
        }
        tensor_content: "\001\000\000\000\001\000\000\000"
      }
    }
  }
}
node {
  name: "lstm_1/strided_slice_6"
  op: "StridedSlice"
  input: "lstm_1/recurrent_kernel/read"
  input: "lstm_1/strided_slice_6/stack"
  input: "lstm_1/strided_slice_6/stack_1"
  input: "lstm_1/strided_slice_6/stack_2"
  attr {
    key: "Index"
    value {
      type: DT_INT32
    }
  }
  attr {
    key: "T"
    value {
      type: DT_FLOAT
    }
  }
  attr {
    key: "begin_mask"
    value {
      i: 1
    }
  }
  attr {
    key: "ellipsis_mask"
    value {
      i: 0
    }
  }
  attr {
    key: "end_mask"
    value {
      i: 1
    }
  }
  attr {
    key: "new_axis_mask"
    value {
      i: 0
    }
  }
  attr {
    key: "shrink_axis_mask"
    value {
      i: 0
    }
  }
}
node {
  name: "lstm_1/strided_slice_7/stack"
  op: "Const"
  attr {
    key: "dtype"
    value {
      type: DT_INT32
    }
  }
  attr {
    key: "value"
    value {
      tensor {
        dtype: DT_INT32
        tensor_shape {
          dim {
            size: 2
          }
        }
        tensor_content: "\000\000\000\000`\000\000\000"
      }
    }
  }
}
node {
  name: "lstm_1/strided_slice_7/stack_1"
  op: "Const"
  attr {
    key: "dtype"
    value {
      type: DT_INT32
    }
  }
  attr {
    key: "value"
    value {
      tensor {
        dtype: DT_INT32
        tensor_shape {
          dim {
            size: 2
          }
        }
        tensor_content: "\000\000\000\000\000\000\000\000"
      }
    }
  }
}
node {
  name: "lstm_1/strided_slice_7/stack_2"
  op: "Const"
  attr {
    key: "dtype"
    value {
      type: DT_INT32
    }
  }
  attr {
    key: "value"
    value {
      tensor {
        dtype: DT_INT32
        tensor_shape {
          dim {
            size: 2
          }
        }
        tensor_content: "\001\000\000\000\001\000\000\000"
      }
    }
  }
}
node {
  name: "lstm_1/strided_slice_7"
  op: "StridedSlice"
  input: "lstm_1/recurrent_kernel/read"
  input: "lstm_1/strided_slice_7/stack"
  input: "lstm_1/strided_slice_7/stack_1"
  input: "lstm_1/strided_slice_7/stack_2"
  attr {
    key: "Index"
    value {
      type: DT_INT32
    }
  }
  attr {
    key: "T"
    value {
      type: DT_FLOAT
    }
  }
  attr {
    key: "begin_mask"
    value {
      i: 1
    }
  }
  attr {
    key: "ellipsis_mask"
    value {
      i: 0
    }
  }
  attr {
    key: "end_mask"
    value {
      i: 3
    }
  }
  attr {
    key: "new_axis_mask"
    value {
      i: 0
    }
  }
  attr {
    key: "shrink_axis_mask"
    value {
      i: 0
    }
  }
}
node {
  name: "lstm_1/strided_slice_8/stack"
  op: "Const"
  attr {
    key: "dtype"
    value {
      type: DT_INT32
    }
  }
  attr {
    key: "value"
    value {
      tensor {
        dtype: DT_INT32
        tensor_shape {
          dim {
            size: 1
          }
        }
        int_val: 0
      }
    }
  }
}
node {
  name: "lstm_1/strided_slice_8/stack_1"
  op: "Const"
  attr {
    key: "dtype"
    value {
      type: DT_INT32
    }
  }
  attr {
    key: "value"
    value {
      tensor {
        dtype: DT_INT32
        tensor_shape {
          dim {
            size: 1
          }
        }
        int_val: 32
      }
    }
  }
}
node {
  name: "lstm_1/strided_slice_8/stack_2"
  op: "Const"
  attr {
    key: "dtype"
    value {
      type: DT_INT32
    }
  }
  attr {
    key: "value"
    value {
      tensor {
        dtype: DT_INT32
        tensor_shape {
          dim {
            size: 1
          }
        }
        int_val: 1
      }
    }
  }
}
node {
  name: "lstm_1/strided_slice_8"
  op: "StridedSlice"
  input: "lstm_1/bias/read"
  input: "lstm_1/strided_slice_8/stack"
  input: "lstm_1/strided_slice_8/stack_1"
  input: "lstm_1/strided_slice_8/stack_2"
  attr {
    key: "Index"
    value {
      type: DT_INT32
    }
  }
  attr {
    key: "T"
    value {
      type: DT_FLOAT
    }
  }
  attr {
    key: "begin_mask"
    value {
      i: 1
    }
  }
  attr {
    key: "ellipsis_mask"
    value {
      i: 0
    }
  }
  attr {
    key: "end_mask"
    value {
      i: 0
    }
  }
  attr {
    key: "new_axis_mask"
    value {
      i: 0
    }
  }
  attr {
    key: "shrink_axis_mask"
    value {
      i: 0
    }
  }
}
node {
  name: "lstm_1/strided_slice_9/stack"
  op: "Const"
  attr {
    key: "dtype"
    value {
      type: DT_INT32
    }
  }
  attr {
    key: "value"
    value {
      tensor {
        dtype: DT_INT32
        tensor_shape {
          dim {
            size: 1
          }
        }
        int_val: 32
      }
    }
  }
}
node {
  name: "lstm_1/strided_slice_9/stack_1"
  op: "Const"
  attr {
    key: "dtype"
    value {
      type: DT_INT32
    }
  }
  attr {
    key: "value"
    value {
      tensor {
        dtype: DT_INT32
        tensor_shape {
          dim {
            size: 1
          }
        }
        int_val: 64
      }
    }
  }
}
node {
  name: "lstm_1/strided_slice_9/stack_2"
  op: "Const"
  attr {
    key: "dtype"
    value {
      type: DT_INT32
    }
  }
  attr {
    key: "value"
    value {
      tensor {
        dtype: DT_INT32
        tensor_shape {
          dim {
            size: 1
          }
        }
        int_val: 1
      }
    }
  }
}
node {
  name: "lstm_1/strided_slice_9"
  op: "StridedSlice"
  input: "lstm_1/bias/read"
  input: "lstm_1/strided_slice_9/stack"
  input: "lstm_1/strided_slice_9/stack_1"
  input: "lstm_1/strided_slice_9/stack_2"
  attr {
    key: "Index"
    value {
      type: DT_INT32
    }
  }
  attr {
    key: "T"
    value {
      type: DT_FLOAT
    }
  }
  attr {
    key: "begin_mask"
    value {
      i: 0
    }
  }
  attr {
    key: "ellipsis_mask"
    value {
      i: 0
    }
  }
  attr {
    key: "end_mask"
    value {
      i: 0
    }
  }
  attr {
    key: "new_axis_mask"
    value {
      i: 0
    }
  }
  attr {
    key: "shrink_axis_mask"
    value {
      i: 0
    }
  }
}
node {
  name: "lstm_1/strided_slice_10/stack"
  op: "Const"
  attr {
    key: "dtype"
    value {
      type: DT_INT32
    }
  }
  attr {
    key: "value"
    value {
      tensor {
        dtype: DT_INT32
        tensor_shape {
          dim {
            size: 1
          }
        }
        int_val: 64
      }
    }
  }
}
node {
  name: "lstm_1/strided_slice_10/stack_1"
  op: "Const"
  attr {
    key: "dtype"
    value {
      type: DT_INT32
    }
  }
  attr {
    key: "value"
    value {
      tensor {
        dtype: DT_INT32
        tensor_shape {
          dim {
            size: 1
          }
        }
        int_val: 96
      }
    }
  }
}
node {
  name: "lstm_1/strided_slice_10/stack_2"
  op: "Const"
  attr {
    key: "dtype"
    value {
      type: DT_INT32
    }
  }
  attr {
    key: "value"
    value {
      tensor {
        dtype: DT_INT32
        tensor_shape {
          dim {
            size: 1
          }
        }
        int_val: 1
      }
    }
  }
}
node {
  name: "lstm_1/strided_slice_10"
  op: "StridedSlice"
  input: "lstm_1/bias/read"
  input: "lstm_1/strided_slice_10/stack"
  input: "lstm_1/strided_slice_10/stack_1"
  input: "lstm_1/strided_slice_10/stack_2"
  attr {
    key: "Index"
    value {
      type: DT_INT32
    }
  }
  attr {
    key: "T"
    value {
      type: DT_FLOAT
    }
  }
  attr {
    key: "begin_mask"
    value {
      i: 0
    }
  }
  attr {
    key: "ellipsis_mask"
    value {
      i: 0
    }
  }
  attr {
    key: "end_mask"
    value {
      i: 0
    }
  }
  attr {
    key: "new_axis_mask"
    value {
      i: 0
    }
  }
  attr {
    key: "shrink_axis_mask"
    value {
      i: 0
    }
  }
}
node {
  name: "lstm_1/strided_slice_11/stack"
  op: "Const"
  attr {
    key: "dtype"
    value {
      type: DT_INT32
    }
  }
  attr {
    key: "value"
    value {
      tensor {
        dtype: DT_INT32
        tensor_shape {
          dim {
            size: 1
          }
        }
        int_val: 96
      }
    }
  }
}
node {
  name: "lstm_1/strided_slice_11/stack_1"
  op: "Const"
  attr {
    key: "dtype"
    value {
      type: DT_INT32
    }
  }
  attr {
    key: "value"
    value {
      tensor {
        dtype: DT_INT32
        tensor_shape {
          dim {
            size: 1
          }
        }
        int_val: 0
      }
    }
  }
}
node {
  name: "lstm_1/strided_slice_11/stack_2"
  op: "Const"
  attr {
    key: "dtype"
    value {
      type: DT_INT32
    }
  }
  attr {
    key: "value"
    value {
      tensor {
        dtype: DT_INT32
        tensor_shape {
          dim {
            size: 1
          }
        }
        int_val: 1
      }
    }
  }
}
node {
  name: "lstm_1/strided_slice_11"
  op: "StridedSlice"
  input: "lstm_1/bias/read"
  input: "lstm_1/strided_slice_11/stack"
  input: "lstm_1/strided_slice_11/stack_1"
  input: "lstm_1/strided_slice_11/stack_2"
  attr {
    key: "Index"
    value {
      type: DT_INT32
    }
  }
  attr {
    key: "T"
    value {
      type: DT_FLOAT
    }
  }
  attr {
    key: "begin_mask"
    value {
      i: 0
    }
  }
  attr {
    key: "ellipsis_mask"
    value {
      i: 0
    }
  }
  attr {
    key: "end_mask"
    value {
      i: 1
    }
  }
  attr {
    key: "new_axis_mask"
    value {
      i: 0
    }
  }
  attr {
    key: "shrink_axis_mask"
    value {
      i: 0
    }
  }
}
node {
  name: "lstm_1/zeros_like"
  op: "ZerosLike"
  input: "lstm_1_input"
  attr {
    key: "T"
    value {
      type: DT_FLOAT
    }
  }
}
node {
  name: "lstm_1/Sum/reduction_indices"
  op: "Const"
  attr {
    key: "dtype"
    value {
      type: DT_INT32
    }
  }
  attr {
    key: "value"
    value {
      tensor {
        dtype: DT_INT32
        tensor_shape {
          dim {
            size: 2
          }
        }
        tensor_content: "\001\000\000\000\002\000\000\000"
      }
    }
  }
}
node {
  name: "lstm_1/Sum"
  op: "Sum"
  input: "lstm_1/zeros_like"
  input: "lstm_1/Sum/reduction_indices"
  attr {
    key: "T"
    value {
      type: DT_FLOAT
    }
  }
  attr {
    key: "Tidx"
    value {
      type: DT_INT32
    }
  }
  attr {
    key: "keep_dims"
    value {
      b: false
    }
  }
}
node {
  name: "lstm_1/ExpandDims/dim"
  op: "Const"
  attr {
    key: "dtype"
    value {
      type: DT_INT32
    }
  }
  attr {
    key: "value"
    value {
      tensor {
        dtype: DT_INT32
        tensor_shape {
        }
        int_val: -1
      }
    }
  }
}
node {
  name: "lstm_1/ExpandDims"
  op: "ExpandDims"
  input: "lstm_1/Sum"
  input: "lstm_1/ExpandDims/dim"
  attr {
    key: "T"
    value {
      type: DT_FLOAT
    }
  }
  attr {
    key: "Tdim"
    value {
      type: DT_INT32
    }
  }
}
node {
  name: "lstm_1/Tile/multiples"
  op: "Const"
  attr {
    key: "dtype"
    value {
      type: DT_INT32
    }
  }
  attr {
    key: "value"
    value {
      tensor {
        dtype: DT_INT32
        tensor_shape {
          dim {
            size: 2
          }
        }
        tensor_content: "\001\000\000\000 \000\000\000"
      }
    }
  }
}
node {
  name: "lstm_1/Tile"
  op: "Tile"
  input: "lstm_1/ExpandDims"
  input: "lstm_1/Tile/multiples"
  attr {
    key: "T"
    value {
      type: DT_FLOAT
    }
  }
  attr {
    key: "Tmultiples"
    value {
      type: DT_INT32
    }
  }
}
node {
  name: "lstm_1/Tile_1/multiples"
  op: "Const"
  attr {
    key: "dtype"
    value {
      type: DT_INT32
    }
  }
  attr {
    key: "value"
    value {
      tensor {
        dtype: DT_INT32
        tensor_shape {
          dim {
            size: 2
          }
        }
        tensor_content: "\001\000\000\000 \000\000\000"
      }
    }
  }
}
node {
  name: "lstm_1/Tile_1"
  op: "Tile"
  input: "lstm_1/ExpandDims"
  input: "lstm_1/Tile_1/multiples"
  attr {
    key: "T"
    value {
      type: DT_FLOAT
    }
  }
  attr {
    key: "Tmultiples"
    value {
      type: DT_INT32
    }
  }
}
node {
  name: "lstm_1/transpose/perm"
  op: "Const"
  attr {
    key: "dtype"
    value {
      type: DT_INT32
    }
  }
  attr {
    key: "value"
    value {
      tensor {
        dtype: DT_INT32
        tensor_shape {
          dim {
            size: 3
          }
        }
        tensor_content: "\001\000\000\000\000\000\000\000\002\000\000\000"
      }
    }
  }
}
node {
  name: "lstm_1/transpose"
  op: "Transpose"
  input: "lstm_1_input"
  input: "lstm_1/transpose/perm"
  attr {
    key: "T"
    value {
      type: DT_FLOAT
    }
  }
  attr {
    key: "Tperm"
    value {
      type: DT_INT32
    }
  }
}
node {
  name: "lstm_1/Shape"
  op: "Shape"
  input: "lstm_1/transpose"
  attr {
    key: "T"
    value {
      type: DT_FLOAT
    }
  }
  attr {
    key: "out_type"
    value {
      type: DT_INT32
    }
  }
}
node {
  name: "lstm_1/strided_slice_12/stack"
  op: "Const"
  attr {
    key: "dtype"
    value {
      type: DT_INT32
    }
  }
  attr {
    key: "value"
    value {
      tensor {
        dtype: DT_INT32
        tensor_shape {
          dim {
            size: 1
          }
        }
        int_val: 0
      }
    }
  }
}
node {
  name: "lstm_1/strided_slice_12/stack_1"
  op: "Const"
  attr {
    key: "dtype"
    value {
      type: DT_INT32
    }
  }
  attr {
    key: "value"
    value {
      tensor {
        dtype: DT_INT32
        tensor_shape {
          dim {
            size: 1
          }
        }
        int_val: 1
      }
    }
  }
}
node {
  name: "lstm_1/strided_slice_12/stack_2"
  op: "Const"
  attr {
    key: "dtype"
    value {
      type: DT_INT32
    }
  }
  attr {
    key: "value"
    value {
      tensor {
        dtype: DT_INT32
        tensor_shape {
          dim {
            size: 1
          }
        }
        int_val: 1
      }
    }
  }
}
node {
  name: "lstm_1/strided_slice_12"
  op: "StridedSlice"
  input: "lstm_1/Shape"
  input: "lstm_1/strided_slice_12/stack"
  input: "lstm_1/strided_slice_12/stack_1"
  input: "lstm_1/strided_slice_12/stack_2"
  attr {
    key: "Index"
    value {
      type: DT_INT32
    }
  }
  attr {
    key: "T"
    value {
      type: DT_INT32
    }
  }
  attr {
    key: "begin_mask"
    value {
      i: 0
    }
  }
  attr {
    key: "ellipsis_mask"
    value {
      i: 0
    }
  }
  attr {
    key: "end_mask"
    value {
      i: 0
    }
  }
  attr {
    key: "new_axis_mask"
    value {
      i: 0
    }
  }
  attr {
    key: "shrink_axis_mask"
    value {
      i: 1
    }
  }
}
node {
  name: "lstm_1/strided_slice_13/stack"
  op: "Const"
  attr {
    key: "dtype"
    value {
      type: DT_INT32
    }
  }
  attr {
    key: "value"
    value {
      tensor {
        dtype: DT_INT32
        tensor_shape {
          dim {
            size: 1
          }
        }
        int_val: 0
      }
    }
  }
}
node {
  name: "lstm_1/strided_slice_13/stack_1"
  op: "Const"
  attr {
    key: "dtype"
    value {
      type: DT_INT32
    }
  }
  attr {
    key: "value"
    value {
      tensor {
        dtype: DT_INT32
        tensor_shape {
          dim {
            size: 1
          }
        }
        int_val: 1
      }
    }
  }
}
node {
  name: "lstm_1/strided_slice_13/stack_2"
  op: "Const"
  attr {
    key: "dtype"
    value {
      type: DT_INT32
    }
  }
  attr {
    key: "value"
    value {
      tensor {
        dtype: DT_INT32
        tensor_shape {
          dim {
            size: 1
          }
        }
        int_val: 1
      }
    }
  }
}
node {
  name: "lstm_1/strided_slice_13"
  op: "StridedSlice"
  input: "lstm_1/transpose"
  input: "lstm_1/strided_slice_13/stack"
  input: "lstm_1/strided_slice_13/stack_1"
  input: "lstm_1/strided_slice_13/stack_2"
  attr {
    key: "Index"
    value {
      type: DT_INT32
    }
  }
  attr {
    key: "T"
    value {
      type: DT_FLOAT
    }
  }
  attr {
    key: "begin_mask"
    value {
      i: 0
    }
  }
  attr {
    key: "ellipsis_mask"
    value {
      i: 0
    }
  }
  attr {
    key: "end_mask"
    value {
      i: 0
    }
  }
  attr {
    key: "new_axis_mask"
    value {
      i: 0
    }
  }
  attr {
    key: "shrink_axis_mask"
    value {
      i: 1
    }
  }
}
node {
  name: "lstm_1/MatMul"
  op: "MatMul"
  input: "lstm_1/strided_slice_13"
  input: "lstm_1/strided_slice"
  attr {
    key: "T"
    value {
      type: DT_FLOAT
    }
  }
  attr {
    key: "transpose_a"
    value {
      b: false
    }
  }
  attr {
    key: "transpose_b"
    value {
      b: false
    }
  }
}
node {
  name: "lstm_1/MatMul_1"
  op: "MatMul"
  input: "lstm_1/strided_slice_13"
  input: "lstm_1/strided_slice_1"
  attr {
    key: "T"
    value {
      type: DT_FLOAT
    }
  }
  attr {
    key: "transpose_a"
    value {
      b: false
    }
  }
  attr {
    key: "transpose_b"
    value {
      b: false
    }
  }
}
node {
  name: "lstm_1/MatMul_2"
  op: "MatMul"
  input: "lstm_1/strided_slice_13"
  input: "lstm_1/strided_slice_2"
  attr {
    key: "T"
    value {
      type: DT_FLOAT
    }
  }
  attr {
    key: "transpose_a"
    value {
      b: false
    }
  }
  attr {
    key: "transpose_b"
    value {
      b: false
    }
  }
}
node {
  name: "lstm_1/MatMul_3"
  op: "MatMul"
  input: "lstm_1/strided_slice_13"
  input: "lstm_1/strided_slice_3"
  attr {
    key: "T"
    value {
      type: DT_FLOAT
    }
  }
  attr {
    key: "transpose_a"
    value {
      b: false
    }
  }
  attr {
    key: "transpose_b"
    value {
      b: false
    }
  }
}
node {
  name: "lstm_1/BiasAdd"
  op: "BiasAdd"
  input: "lstm_1/MatMul"
  input: "lstm_1/strided_slice_8"
  attr {
    key: "T"
    value {
      type: DT_FLOAT
    }
  }
  attr {
    key: "data_format"
    value {
      s: "NHWC"
    }
  }
}
node {
  name: "lstm_1/BiasAdd_1"
  op: "BiasAdd"
  input: "lstm_1/MatMul_1"
  input: "lstm_1/strided_slice_9"
  attr {
    key: "T"
    value {
      type: DT_FLOAT
    }
  }
  attr {
    key: "data_format"
    value {
      s: "NHWC"
    }
  }
}
node {
  name: "lstm_1/BiasAdd_2"
  op: "BiasAdd"
  input: "lstm_1/MatMul_2"
  input: "lstm_1/strided_slice_10"
  attr {
    key: "T"
    value {
      type: DT_FLOAT
    }
  }
  attr {
    key: "data_format"
    value {
      s: "NHWC"
    }
  }
}
node {
  name: "lstm_1/BiasAdd_3"
  op: "BiasAdd"
  input: "lstm_1/MatMul_3"
  input: "lstm_1/strided_slice_11"
  attr {
    key: "T"
    value {
      type: DT_FLOAT
    }
  }
  attr {
    key: "data_format"
    value {
      s: "NHWC"
    }
  }
}
node {
  name: "lstm_1/MatMul_4"
  op: "MatMul"
  input: "lstm_1/Tile"
  input: "lstm_1/strided_slice_4"
  attr {
    key: "T"
    value {
      type: DT_FLOAT
    }
  }
  attr {
    key: "transpose_a"
    value {
      b: false
    }
  }
  attr {
    key: "transpose_b"
    value {
      b: false
    }
  }
}
node {
  name: "lstm_1/add"
  op: "Add"
  input: "lstm_1/BiasAdd"
  input: "lstm_1/MatMul_4"
  attr {
    key: "T"
    value {
      type: DT_FLOAT
    }
  }
}
node {
  name: "lstm_1/mul/x"
  op: "Const"
  attr {
    key: "dtype"
    value {
      type: DT_FLOAT
    }
  }
  attr {
    key: "value"
    value {
      tensor {
        dtype: DT_FLOAT
        tensor_shape {
        }
        float_val: 0.20000000298023224
      }
    }
  }
}
node {
  name: "lstm_1/mul"
  op: "Mul"
  input: "lstm_1/mul/x"
  input: "lstm_1/add"
  attr {
    key: "T"
    value {
      type: DT_FLOAT
    }
  }
}
node {
  name: "lstm_1/add_1/y"
  op: "Const"
  attr {
    key: "dtype"
    value {
      type: DT_FLOAT
    }
  }
  attr {
    key: "value"
    value {
      tensor {
        dtype: DT_FLOAT
        tensor_shape {
        }
        float_val: 0.5
      }
    }
  }
}
node {
  name: "lstm_1/add_1"
  op: "Add"
  input: "lstm_1/mul"
  input: "lstm_1/add_1/y"
  attr {
    key: "T"
    value {
      type: DT_FLOAT
    }
  }
}
node {
  name: "lstm_1/Const_3"
  op: "Const"
  attr {
    key: "dtype"
    value {
      type: DT_FLOAT
    }
  }
  attr {
    key: "value"
    value {
      tensor {
        dtype: DT_FLOAT
        tensor_shape {
        }
        float_val: 0.0
      }
    }
  }
}
node {
  name: "lstm_1/Const_4"
  op: "Const"
  attr {
    key: "dtype"
    value {
      type: DT_FLOAT
    }
  }
  attr {
    key: "value"
    value {
      tensor {
        dtype: DT_FLOAT
        tensor_shape {
        }
        float_val: 1.0
      }
    }
  }
}
node {
  name: "lstm_1/clip_by_value/Minimum"
  op: "Minimum"
  input: "lstm_1/add_1"
  input: "lstm_1/Const_4"
  attr {
    key: "T"
    value {
      type: DT_FLOAT
    }
  }
}
node {
  name: "lstm_1/clip_by_value"
  op: "Maximum"
  input: "lstm_1/clip_by_value/Minimum"
  input: "lstm_1/Const_3"
  attr {
    key: "T"
    value {
      type: DT_FLOAT
    }
  }
}
node {
  name: "lstm_1/MatMul_5"
  op: "MatMul"
  input: "lstm_1/Tile"
  input: "lstm_1/strided_slice_5"
  attr {
    key: "T"
    value {
      type: DT_FLOAT
    }
  }
  attr {
    key: "transpose_a"
    value {
      b: false
    }
  }
  attr {
    key: "transpose_b"
    value {
      b: false
    }
  }
}
node {
  name: "lstm_1/add_2"
  op: "Add"
  input: "lstm_1/BiasAdd_1"
  input: "lstm_1/MatMul_5"
  attr {
    key: "T"
    value {
      type: DT_FLOAT
    }
  }
}
node {
  name: "lstm_1/mul_1/x"
  op: "Const"
  attr {
    key: "dtype"
    value {
      type: DT_FLOAT
    }
  }
  attr {
    key: "value"
    value {
      tensor {
        dtype: DT_FLOAT
        tensor_shape {
        }
        float_val: 0.20000000298023224
      }
    }
  }
}
node {
  name: "lstm_1/mul_1"
  op: "Mul"
  input: "lstm_1/mul_1/x"
  input: "lstm_1/add_2"
  attr {
    key: "T"
    value {
      type: DT_FLOAT
    }
  }
}
node {
  name: "lstm_1/add_3/y"
  op: "Const"
  attr {
    key: "dtype"
    value {
      type: DT_FLOAT
    }
  }
  attr {
    key: "value"
    value {
      tensor {
        dtype: DT_FLOAT
        tensor_shape {
        }
        float_val: 0.5
      }
    }
  }
}
node {
  name: "lstm_1/add_3"
  op: "Add"
  input: "lstm_1/mul_1"
  input: "lstm_1/add_3/y"
  attr {
    key: "T"
    value {
      type: DT_FLOAT
    }
  }
}
node {
  name: "lstm_1/Const_5"
  op: "Const"
  attr {
    key: "dtype"
    value {
      type: DT_FLOAT
    }
  }
  attr {
    key: "value"
    value {
      tensor {
        dtype: DT_FLOAT
        tensor_shape {
        }
        float_val: 0.0
      }
    }
  }
}
node {
  name: "lstm_1/Const_6"
  op: "Const"
  attr {
    key: "dtype"
    value {
      type: DT_FLOAT
    }
  }
  attr {
    key: "value"
    value {
      tensor {
        dtype: DT_FLOAT
        tensor_shape {
        }
        float_val: 1.0
      }
    }
  }
}
node {
  name: "lstm_1/clip_by_value_1/Minimum"
  op: "Minimum"
  input: "lstm_1/add_3"
  input: "lstm_1/Const_6"
  attr {
    key: "T"
    value {
      type: DT_FLOAT
    }
  }
}
node {
  name: "lstm_1/clip_by_value_1"
  op: "Maximum"
  input: "lstm_1/clip_by_value_1/Minimum"
  input: "lstm_1/Const_5"
  attr {
    key: "T"
    value {
      type: DT_FLOAT
    }
  }
}
node {
  name: "lstm_1/mul_2"
  op: "Mul"
  input: "lstm_1/clip_by_value_1"
  input: "lstm_1/Tile_1"
  attr {
    key: "T"
    value {
      type: DT_FLOAT
    }
  }
}
node {
  name: "lstm_1/MatMul_6"
  op: "MatMul"
  input: "lstm_1/Tile"
  input: "lstm_1/strided_slice_6"
  attr {
    key: "T"
    value {
      type: DT_FLOAT
    }
  }
  attr {
    key: "transpose_a"
    value {
      b: false
    }
  }
  attr {
    key: "transpose_b"
    value {
      b: false
    }
  }
}
node {
  name: "lstm_1/add_4"
  op: "Add"
  input: "lstm_1/BiasAdd_2"
  input: "lstm_1/MatMul_6"
  attr {
    key: "T"
    value {
      type: DT_FLOAT
    }
  }
}
node {
  name: "lstm_1/Tanh"
  op: "Tanh"
  input: "lstm_1/add_4"
  attr {
    key: "T"
    value {
      type: DT_FLOAT
    }
  }
}
node {
  name: "lstm_1/mul_3"
  op: "Mul"
  input: "lstm_1/clip_by_value"
  input: "lstm_1/Tanh"
  attr {
    key: "T"
    value {
      type: DT_FLOAT
    }
  }
}
node {
  name: "lstm_1/add_5"
  op: "Add"
  input: "lstm_1/mul_2"
  input: "lstm_1/mul_3"
  attr {
    key: "T"
    value {
      type: DT_FLOAT
    }
  }
}
node {
  name: "lstm_1/MatMul_7"
  op: "MatMul"
  input: "lstm_1/Tile"
  input: "lstm_1/strided_slice_7"
  attr {
    key: "T"
    value {
      type: DT_FLOAT
    }
  }
  attr {
    key: "transpose_a"
    value {
      b: false
    }
  }
  attr {
    key: "transpose_b"
    value {
      b: false
    }
  }
}
node {
  name: "lstm_1/add_6"
  op: "Add"
  input: "lstm_1/BiasAdd_3"
  input: "lstm_1/MatMul_7"
  attr {
    key: "T"
    value {
      type: DT_FLOAT
    }
  }
}
node {
  name: "lstm_1/mul_4/x"
  op: "Const"
  attr {
    key: "dtype"
    value {
      type: DT_FLOAT
    }
  }
  attr {
    key: "value"
    value {
      tensor {
        dtype: DT_FLOAT
        tensor_shape {
        }
        float_val: 0.20000000298023224
      }
    }
  }
}
node {
  name: "lstm_1/mul_4"
  op: "Mul"
  input: "lstm_1/mul_4/x"
  input: "lstm_1/add_6"
  attr {
    key: "T"
    value {
      type: DT_FLOAT
    }
  }
}
node {
  name: "lstm_1/add_7/y"
  op: "Const"
  attr {
    key: "dtype"
    value {
      type: DT_FLOAT
    }
  }
  attr {
    key: "value"
    value {
      tensor {
        dtype: DT_FLOAT
        tensor_shape {
        }
        float_val: 0.5
      }
    }
  }
}
node {
  name: "lstm_1/add_7"
  op: "Add"
  input: "lstm_1/mul_4"
  input: "lstm_1/add_7/y"
  attr {
    key: "T"
    value {
      type: DT_FLOAT
    }
  }
}
node {
  name: "lstm_1/Const_7"
  op: "Const"
  attr {
    key: "dtype"
    value {
      type: DT_FLOAT
    }
  }
  attr {
    key: "value"
    value {
      tensor {
        dtype: DT_FLOAT
        tensor_shape {
        }
        float_val: 0.0
      }
    }
  }
}
node {
  name: "lstm_1/Const_8"
  op: "Const"
  attr {
    key: "dtype"
    value {
      type: DT_FLOAT
    }
  }
  attr {
    key: "value"
    value {
      tensor {
        dtype: DT_FLOAT
        tensor_shape {
        }
        float_val: 1.0
      }
    }
  }
}
node {
  name: "lstm_1/clip_by_value_2/Minimum"
  op: "Minimum"
  input: "lstm_1/add_7"
  input: "lstm_1/Const_8"
  attr {
    key: "T"
    value {
      type: DT_FLOAT
    }
  }
}
node {
  name: "lstm_1/clip_by_value_2"
  op: "Maximum"
  input: "lstm_1/clip_by_value_2/Minimum"
  input: "lstm_1/Const_7"
  attr {
    key: "T"
    value {
      type: DT_FLOAT
    }
  }
}
node {
  name: "lstm_1/Tanh_1"
  op: "Tanh"
  input: "lstm_1/add_5"
  attr {
    key: "T"
    value {
      type: DT_FLOAT
    }
  }
}
node {
  name: "lstm_1/mul_5"
  op: "Mul"
  input: "lstm_1/clip_by_value_2"
  input: "lstm_1/Tanh_1"
  attr {
    key: "T"
    value {
      type: DT_FLOAT
    }
  }
}
node {
  name: "lstm_1/TensorArray"
  op: "TensorArrayV3"
  input: "lstm_1/strided_slice_12"
  attr {
    key: "clear_after_read"
    value {
      b: true
    }
  }
  attr {
    key: "dtype"
    value {
      type: DT_FLOAT
    }
  }
  attr {
    key: "dynamic_size"
    value {
      b: false
    }
  }
  attr {
    key: "element_shape"
    value {
      shape {
        unknown_rank: true
      }
    }
  }
  attr {
    key: "identical_element_shapes"
    value {
      b: true
    }
  }
  attr {
    key: "tensor_array_name"
    value {
      s: "output_ta"
    }
  }
}
node {
  name: "lstm_1/TensorArray_1"
  op: "TensorArrayV3"
  input: "lstm_1/strided_slice_12"
  attr {
    key: "clear_after_read"
    value {
      b: true
    }
  }
  attr {
    key: "dtype"
    value {
      type: DT_FLOAT
    }
  }
  attr {
    key: "dynamic_size"
    value {
      b: false
    }
  }
  attr {
    key: "element_shape"
    value {
      shape {
        unknown_rank: true
      }
    }
  }
  attr {
    key: "identical_element_shapes"
    value {
      b: true
    }
  }
  attr {
    key: "tensor_array_name"
    value {
      s: "input_ta"
    }
  }
}
node {
  name: "lstm_1/TensorArrayUnstack/Shape"
  op: "Shape"
  input: "lstm_1/transpose"
  attr {
    key: "T"
    value {
      type: DT_FLOAT
    }
  }
  attr {
    key: "out_type"
    value {
      type: DT_INT32
    }
  }
}
node {
  name: "lstm_1/TensorArrayUnstack/strided_slice/stack"
  op: "Const"
  attr {
    key: "dtype"
    value {
      type: DT_INT32
    }
  }
  attr {
    key: "value"
    value {
      tensor {
        dtype: DT_INT32
        tensor_shape {
          dim {
            size: 1
          }
        }
        int_val: 0
      }
    }
  }
}
node {
  name: "lstm_1/TensorArrayUnstack/strided_slice/stack_1"
  op: "Const"
  attr {
    key: "dtype"
    value {
      type: DT_INT32
    }
  }
  attr {
    key: "value"
    value {
      tensor {
        dtype: DT_INT32
        tensor_shape {
          dim {
            size: 1
          }
        }
        int_val: 1
      }
    }
  }
}
node {
  name: "lstm_1/TensorArrayUnstack/strided_slice/stack_2"
  op: "Const"
  attr {
    key: "dtype"
    value {
      type: DT_INT32
    }
  }
  attr {
    key: "value"
    value {
      tensor {
        dtype: DT_INT32
        tensor_shape {
          dim {
            size: 1
          }
        }
        int_val: 1
      }
    }
  }
}
node {
  name: "lstm_1/TensorArrayUnstack/strided_slice"
  op: "StridedSlice"
  input: "lstm_1/TensorArrayUnstack/Shape"
  input: "lstm_1/TensorArrayUnstack/strided_slice/stack"
  input: "lstm_1/TensorArrayUnstack/strided_slice/stack_1"
  input: "lstm_1/TensorArrayUnstack/strided_slice/stack_2"
  attr {
    key: "Index"
    value {
      type: DT_INT32
    }
  }
  attr {
    key: "T"
    value {
      type: DT_INT32
    }
  }
  attr {
    key: "begin_mask"
    value {
      i: 0
    }
  }
  attr {
    key: "ellipsis_mask"
    value {
      i: 0
    }
  }
  attr {
    key: "end_mask"
    value {
      i: 0
    }
  }
  attr {
    key: "new_axis_mask"
    value {
      i: 0
    }
  }
  attr {
    key: "shrink_axis_mask"
    value {
      i: 1
    }
  }
}
node {
  name: "lstm_1/TensorArrayUnstack/range/start"
  op: "Const"
  attr {
    key: "dtype"
    value {
      type: DT_INT32
    }
  }
  attr {
    key: "value"
    value {
      tensor {
        dtype: DT_INT32
        tensor_shape {
        }
        int_val: 0
      }
    }
  }
}
node {
  name: "lstm_1/TensorArrayUnstack/range/delta"
  op: "Const"
  attr {
    key: "dtype"
    value {
      type: DT_INT32
    }
  }
  attr {
    key: "value"
    value {
      tensor {
        dtype: DT_INT32
        tensor_shape {
        }
        int_val: 1
      }
    }
  }
}
node {
  name: "lstm_1/TensorArrayUnstack/range"
  op: "Range"
  input: "lstm_1/TensorArrayUnstack/range/start"
  input: "lstm_1/TensorArrayUnstack/strided_slice"
  input: "lstm_1/TensorArrayUnstack/range/delta"
  attr {
    key: "Tidx"
    value {
      type: DT_INT32
    }
  }
}
node {
  name: "lstm_1/TensorArrayUnstack/TensorArrayScatter/TensorArrayScatterV3"
  op: "TensorArrayScatterV3"
  input: "lstm_1/TensorArray_1"
  input: "lstm_1/TensorArrayUnstack/range"
  input: "lstm_1/transpose"
  input: "lstm_1/TensorArray_1:1"
  attr {
    key: "T"
    value {
      type: DT_FLOAT
    }
  }
  attr {
    key: "_class"
    value {
      list {
        s: "loc:@lstm_1/transpose"
      }
    }
  }
}
node {
  name: "lstm_1/time"
  op: "Const"
  attr {
    key: "dtype"
    value {
      type: DT_INT32
    }
  }
  attr {
    key: "value"
    value {
      tensor {
        dtype: DT_INT32
        tensor_shape {
        }
        int_val: 0
      }
    }
  }
}
node {
  name: "lstm_1/while/Enter"
  op: "Enter"
  input: "lstm_1/time"
  attr {
    key: "T"
    value {
      type: DT_INT32
    }
  }
  attr {
    key: "frame_name"
    value {
      s: "lstm_1/while/while_context"
    }
  }
  attr {
    key: "is_constant"
    value {
      b: false
    }
  }
  attr {
    key: "parallel_iterations"
    value {
      i: 32
    }
  }
}
node {
  name: "lstm_1/while/Enter_1"
  op: "Enter"
  input: "lstm_1/TensorArray:1"
  attr {
    key: "T"
    value {
      type: DT_FLOAT
    }
  }
  attr {
    key: "frame_name"
    value {
      s: "lstm_1/while/while_context"
    }
  }
  attr {
    key: "is_constant"
    value {
      b: false
    }
  }
  attr {
    key: "parallel_iterations"
    value {
      i: 32
    }
  }
}
node {
  name: "lstm_1/while/Enter_2"
  op: "Enter"
  input: "lstm_1/Tile"
  attr {
    key: "T"
    value {
      type: DT_FLOAT
    }
  }
  attr {
    key: "frame_name"
    value {
      s: "lstm_1/while/while_context"
    }
  }
  attr {
    key: "is_constant"
    value {
      b: false
    }
  }
  attr {
    key: "parallel_iterations"
    value {
      i: 32
    }
  }
}
node {
  name: "lstm_1/while/Enter_3"
  op: "Enter"
  input: "lstm_1/Tile_1"
  attr {
    key: "T"
    value {
      type: DT_FLOAT
    }
  }
  attr {
    key: "frame_name"
    value {
      s: "lstm_1/while/while_context"
    }
  }
  attr {
    key: "is_constant"
    value {
      b: false
    }
  }
  attr {
    key: "parallel_iterations"
    value {
      i: 32
    }
  }
}
node {
  name: "lstm_1/while/Merge"
  op: "Merge"
  input: "lstm_1/while/Enter"
  input: "lstm_1/while/NextIteration"
  attr {
    key: "N"
    value {
      i: 2
    }
  }
  attr {
    key: "T"
    value {
      type: DT_INT32
    }
  }
}
node {
  name: "lstm_1/while/Merge_1"
  op: "Merge"
  input: "lstm_1/while/Enter_1"
  input: "lstm_1/while/NextIteration_1"
  attr {
    key: "N"
    value {
      i: 2
    }
  }
  attr {
    key: "T"
    value {
      type: DT_FLOAT
    }
  }
}
node {
  name: "lstm_1/while/Merge_2"
  op: "Merge"
  input: "lstm_1/while/Enter_2"
  input: "lstm_1/while/NextIteration_2"
  attr {
    key: "N"
    value {
      i: 2
    }
  }
  attr {
    key: "T"
    value {
      type: DT_FLOAT
    }
  }
}
node {
  name: "lstm_1/while/Merge_3"
  op: "Merge"
  input: "lstm_1/while/Enter_3"
  input: "lstm_1/while/NextIteration_3"
  attr {
    key: "N"
    value {
      i: 2
    }
  }
  attr {
    key: "T"
    value {
      type: DT_FLOAT
    }
  }
}
node {
  name: "lstm_1/while/Less"
  op: "Less"
  input: "lstm_1/while/Merge"
  input: "lstm_1/while/Less/Enter"
  attr {
    key: "T"
    value {
      type: DT_INT32
    }
  }
}
node {
  name: "lstm_1/while/Less/Enter"
  op: "Enter"
  input: "lstm_1/strided_slice_12"
  attr {
    key: "T"
    value {
      type: DT_INT32
    }
  }
  attr {
    key: "frame_name"
    value {
      s: "lstm_1/while/while_context"
    }
  }
  attr {
    key: "is_constant"
    value {
      b: true
    }
  }
  attr {
    key: "parallel_iterations"
    value {
      i: 32
    }
  }
}
node {
  name: "lstm_1/while/LoopCond"
  op: "LoopCond"
  input: "lstm_1/while/Less"
}
node {
  name: "lstm_1/while/Switch"
  op: "Switch"
  input: "lstm_1/while/Merge"
  input: "lstm_1/while/LoopCond"
  attr {
    key: "T"
    value {
      type: DT_INT32
    }
  }
  attr {
    key: "_class"
    value {
      list {
        s: "loc:@lstm_1/while/Merge"
      }
    }
  }
}
node {
  name: "lstm_1/while/Switch_1"
  op: "Switch"
  input: "lstm_1/while/Merge_1"
  input: "lstm_1/while/LoopCond"
  attr {
    key: "T"
    value {
      type: DT_FLOAT
    }
  }
  attr {
    key: "_class"
    value {
      list {
