node {
  name: "lstm_1_input"
  op: "Placeholder"
  attr {
    key: "dtype"
    value {
      type: DT_FLOAT
    }
  }
  attr {
    key: "shape"
    value {
      shape {
        dim {
          size: -1
        }
        dim {
          size: 60
        }
        dim {
          size: 27
        }
      }
    }
  }
}
node {
  name: "lstm_1/random_uniform/shape"
  op: "Const"
  attr {
    key: "dtype"
    value {
      type: DT_INT32
    }
  }
  attr {
    key: "value"
    value {
      tensor {
        dtype: DT_INT32
        tensor_shape {
          dim {
            size: 2
          }
        }
        tensor_content: "\033\000\000\000\200\000\000\000"
      }
    }
  }
}
node {
  name: "lstm_1/random_uniform/min"
  op: "Const"
  attr {
    key: "dtype"
    value {
      type: DT_FLOAT
    }
  }
  attr {
    key: "value"
    value {
      tensor {
        dtype: DT_FLOAT
        tensor_shape {
        }
        float_val: -0.19674775004386902
      }
    }
  }
}
node {
  name: "lstm_1/random_uniform/max"
  op: "Const"
  attr {
    key: "dtype"
    value {
      type: DT_FLOAT
    }
  }
  attr {
    key: "value"
    value {
      tensor {
        dtype: DT_FLOAT
        tensor_shape {
        }
        float_val: 0.19674775004386902
      }
    }
  }
}
node {
  name: "lstm_1/random_uniform/RandomUniform"
  op: "RandomUniform"
  input: "lstm_1/random_uniform/shape"
  attr {
    key: "T"
    value {
      type: DT_INT32
    }
  }
  attr {
    key: "dtype"
    value {
      type: DT_FLOAT
    }
  }
  attr {
    key: "seed"
    value {
      i: 87654321
    }
  }
  attr {
    key: "seed2"
    value {
      i: 9883002
    }
  }
}
node {
  name: "lstm_1/random_uniform/sub"
  op: "Sub"
  input: "lstm_1/random_uniform/max"
  input: "lstm_1/random_uniform/min"
  attr {
    key: "T"
    value {
      type: DT_FLOAT
    }
  }
}
node {
  name: "lstm_1/random_uniform/mul"
  op: "Mul"
  input: "lstm_1/random_uniform/RandomUniform"
  input: "lstm_1/random_uniform/sub"
  attr {
    key: "T"
    value {
      type: DT_FLOAT
    }
  }
}
node {
  name: "lstm_1/random_uniform"
  op: "Add"
  input: "lstm_1/random_uniform/mul"
  input: "lstm_1/random_uniform/min"
  attr {
    key: "T"
    value {
      type: DT_FLOAT
    }
  }
}
node {
  name: "lstm_1/kernel"
  op: "VariableV2"
  attr {
    key: "container"
    value {
      s: ""
    }
  }
  attr {
    key: "dtype"
    value {
      type: DT_FLOAT
    }
  }
  attr {
    key: "shape"
    value {
      shape {
        dim {
          size: 27
        }
        dim {
          size: 128
        }
      }
    }
  }
  attr {
    key: "shared_name"
    value {
      s: ""
    }
  }
}
node {
  name: "lstm_1/kernel/Assign"
  op: "Assign"
  input: "lstm_1/kernel"
  input: "lstm_1/random_uniform"
  attr {
    key: "T"
    value {
      type: DT_FLOAT
    }
  }
  attr {
    key: "_class"
    value {
      list {
        s: "loc:@lstm_1/kernel"
      }
    }
  }
  attr {
    key: "use_locking"
    value {
      b: true
    }
  }
  attr {
    key: "validate_shape"
    value {
      b: true
    }
  }
}
node {
  name: "lstm_1/kernel/read"
  op: "Identity"
  input: "lstm_1/kernel"
  attr {
    key: "T"
    value {
      type: DT_FLOAT
    }
  }
  attr {
    key: "_class"
    value {
      list {
        s: "loc:@lstm_1/kernel"
      }
    }
  }
}
node {
  name: "lstm_1/recurrent_kernel/initial_value"
  op: "Const"
  attr {
    key: "dtype"
    value {
      type: DT_FLOAT
    }
  }
  attr {
    key: "value"
    value {
      tensor {
        dtype: DT_FLOAT
        tensor_shape {
          dim {
            size: 32
          }
          dim {
            size: 128
          }
        }
        tensor_content: ";+S\274z\263U\275t<\205\2759\212F\274;\010\031\275\310\3309\275\023]\350\275\025\"2=m\032\214=\r\375r=1\253\361=\354\270>=\370W\010\275y7|<\002\217x\273\\\341\235\275\277P:\275\234\251\025<<\365\024>\271\0354\275\270\340\327\273es\224\275\271\341\212<\0001\020=\271\211d=\024\021\004\275\314S\033\275A\222\013\276(|\300=\314\345N<{eD=\255:\016\276\222e\347\275$,\237=Us\356\274y`\n\276_E\033>\tJd\275\261\237s\275_\354K\275\031h\010\276\335\243<\275\234\337\200=w\274\324=\320\006\025>\177\265\200=\t2\347=\024\317M=9\355-<K\222\225=\003)\355;\322\242\r\276\004s\335\275\327\201p=\341\206/\275\333\3213=\276\304->\357\2272>\327\205\224<jC\005=\353\345K\276\237\246\364\275A\272\214=-~\016\276\024\024\027\276.\345\206=\340\203\322=_\034(><\345\232\275\321\331\362\275q\251\263=%\301\245<\3677\360\274\335\342\371=\343\310\331<\354\202\267\273\376\245\364=b\307\226<\242y\236\272\310L\342<eb\233;\333!\274\274\0046\230=\357\264\343\274x\342d\276Y}\231=\377\305\322= \250\306\275@\"\256\274\334\035\036=\223\364\245\275\235\206t\274\213\212\363=\316\240A\276rD\365=\247\365\337\275x\305\231\274\353;5\275R\216\220\274\346\177\204\274#H\222\275\003w\240=_z\345\274s\277\207\275}qg<^\2521=\235\200\'\275\373so=_\222\272\273\231\2239\276^\333\034>5\362]>{ \210\275\362&4=\344\223_\275h\033\316\275\022\276\272\274\0277\262=;b\241\275\266L\364=\372\203\307\275\310\r\031\276\273N\342<B\"\206\27507\317=`\307\345=\327e\325<\340y\224;j\213\004=\3410L\273\025\362\002\275\313k\273\274!\272\214\275 \201\235=|~\301=\r\324\365\275\205A\214=\033\216\341\275\026\036\366\273%\242\223\274\302D\006\275\213\321\205=\333\354\006\275\037\250\201\275\300-\004<n\330y=\'\251\352=\223\347D\275/\016!\275\356\372\215\275\213\306\023=\353]\035=0\247\257=\345\252j<\306B\347\275\031\213C>c|\222=\264\207\027=\014\007\000>\026_\255<\033\007\034\275Ld\237=s\022\027>Q\203\035\2767\2513\274\032%l\275K\2212\275d\340\021\275\334[\214\275\246\355\250\275P\246\204=\256\n@=\254k\345=\006\337\260=\241BR=\300(\242=\346\247\314=\324\302\t\275\213\207\r=d\001\r=L\262\267\275k\247\210\272c\346\025>\244e\363\275T)(>\264N_\275\324n%=\364}\030\276\034\260\250<R\rQ=i\216-\275\226\027S>\001\0232< /z\275\024qP>\246\013\253=\024\373k=\032\200\314\274\243\347,<\226Pl;\336z(=\235\203\t=\373\261\201\274\240\037(\275\372A\361\275\037\245\254\2753%D=[;\013>]\272\301\275\273\203\360\2751j\005\276\014\312\000\2754\246\273=\316\316\017\276\362\210\330;F\027\243\275\310\273\000\276t4!>\346\370\002\276\310(j\276\037Y\000\276>\366\206>\362%\374\275{\247\363=1Mz\274\223\260\003>\030\300\313\275\027\244\230\275eiR\275\353\003&>x\301L<\321\017\244=\033\231\270\275Cn2\275~>\221\275\356\034\221\275cn\371=\376\035\023=&\301\256=\373;\215\275\320\241\014\275\235\362Q<Xn\317=A\206\263\275\276\r$=\201\225U=j\354\277\275\313\331\001\275\261\370\n\274\017;\332;\020\013\'\275\177\210B\275$\033_=\302\005:={p\360<M\342L\275T\344\200\275u\006+\275k\322\202>\222\356x\274\333\3754\274\2107D<\3704x9\207\275K\275\010\303]<\327\304]=:\"\205=\2250\001\275\016\262v\275\343\260\002\276B~\315<\307w\013\276\377A\353\274\026c]\274\262\"%\276\276n#=\340\327\026\276\235\207\034=Q\362\027\275\010\346,\276\276\252\363=\031\177\317\275\354t\202\274\275\204K\276\343o\345=+\223\212<#\024\023>`\023\255\275S\026\304<\t\242\030\276\324\235\375;\036=\230\275X\265\244\275k\013\036>\306\035N<fD)>\023\203\347=\236\t\007<7M\\>\237\267\010=\267S\343\275f\262\306\274#\027C\275}\203Z=\264\270\335=\210\001\350=\014@\000\275\004\036%\276 \361\271\275\025-K=`\223\247=P\273\324=\017 R;=,\\\275)\336\023\275M+\036\275p\310^>\226\224\005>]\351\221<s\305\353\273\020LO=\314\255\304=.\373\005<\252\350}\274 y\033:0\345\274=\2617\207<n\206u<\3740e=~AY\275;\000L>\374{v=\212\266\266=a)=\276\365\0204\275\256.%\275\3378\004\276.\262\201<\273\302\017=\364\336W\274\334J\340\274A~?\275s\345(>\273\3279\275a\030.\275e{*=\001tE\275\371\2244\276\375\254,>~Uk=jw\025>\007\312\321\275\277)\325\274}\251\211<\2462\032\274\317\257\023\275\003)\245=\210\013a</2S\2752d\214=/\205\243\274\033\002)=E\274\200\275w4\004\275Y\334\006>\\po=\006]\311\275 T_<\177\317\363;\002\246\035\274\312\260\212\274\321\323$>\014\226\006=\366b6=d\017\361\274\213\211\007\274\320\322\243<\032\262 \275\336\320\257=J\353\314\271\331\340o<\347\2104=c>A\275\366\241\344=\334\250\311\275\017 \264=\344\247\023\276\"\202\212\275\"s\261=\'E\361=\270\234\325\275C~\314\2754\"\272\275\366m:\2752\377\\=\376\2126\276P.\034=\245\376\370<\303>\030>\030\241h\276^\254\263=\207.\004<\274\224\255\274\016\372\375=\335\362\251=L!\251=\332z\235=\303\311\232=\306\303[=\334E\333\273j\376\207\275)\"\025\275\017\262Y<\210$p\276`\304\003=P\236\204\275\360oc\273\023Jl=\315\037\316\275}oD=\235\262\226\272\326\302\255=\003\327\267<\037\340J\275Ytg=\247\255\233\275\2654\315=I\367\326\274_\021\216\275y\005\023<\316vO\273\026\344X\275Ww\201\275\211\207\330\273\266Q\274\275n\216\252=\321\207\204=^\356\323\275\003]\n\276\'\021\226\275XB/>\274?\210\275\',\375\275Z\313\356\275\260#\260\275\201\245\024\276\272\327\246\275\351{\324\275\"\321\275<\005\227\025>\334\370\211=\372\3460\276\356\375a\276c\\@\275\260!\202\275U|E\275d\221\317=oB\377;Ko\335\274U{\021=S&\257=NC>=h0\344<1\355%=\366\013L=7T\037>\236NW\276\366\035\233\275\302\201\340=v\251\347=\352\317\205\273\231\'\226=\t\223\343<\000\014->6\236\240=\014\277\310\274\343\370G<\275$\\\275\213\334 <\225\261\265<Y|\375<#\234Y=(P \276\311\314\276\275\246A\352\274\205\214\023\275\361\265\254\275\324\004\200=V\022\235\275\030\336\t\275\")z\275\006\253\005\276\335\022\002=X@6=\3639O=\227D(\275\370\201\343<\0268\274=\271a\246\275T\277\362=S\247\200\275\377,\022>UF}=\336\263\205\275\311y\217\275(\245&=\n\336\337=\003\2016\274^7\'=\356\343\021=\317\021\273\274\265\276E\275\301\244\226=\324\372\036>\311\325#\275\312\254!\275\030\205,\276\200\354*=~O\317=\357\277\035>\r>r\275v|\203\275\210\233\257<\346:\206\275 o4=\264G\210>\242\002s=\262\000\312\275\246\021\225=\311\'\013\275[w\220\275\236\255\013=\035\344\220\274\244x\006=\232\365P\275m\354\222=\226\017\235\2741\345\006\276\214\337r={\203\n=\322\240?>!w\022=\247\323\303\274H5\362<\245\006\321\273\234l<\275\267l2=`\010\276\275L^\333=8\367\254\275\006\326d\275_\004\374<\r\322\034\276\215l\210= z \276\027\r\037\276/.s\2756\031\235;\022U\014\276\016\203\212=TZ\030\275\240)\241=\275\024\271\275\313h\201\275\363\014\023\276\206\272\016\276F\032\250\275Do\354<\317\277Q\275\016\262\360\275,M\337\275xt\260=\362(<=\255\340_=\264\225\302\275)b\002\276\031L\206=\343n\321=\325\021\331=H\327\255=\017L4<Cz\361;\236\363S=\360\214I\274 \361\262=\262\t\033=\016H\324=\211\224\253\274\021Y\027<8s\377\275+\013\276=>\245%=\251AX=\303X\246\274\'\030S=#\226^<\227a\230<?\005L>\201\274C\275n\230\315<o\005E\276\326\034\252=mH\"\276J\027n=N\210\262\275!v\220\275\0023C<\247\027@\275\"\325\t\275*U|<\222ga=A\276\361\275\320\224\213\275\326&\201\275*\301\242<\2730\200;\371\231\213=\242\317\277=J|\262\274\214\250\312=\\\030-\275M\366\323< x5=\032\212\226=\362\315&\275VF\237<\354\230\317=\365\350\356=\017/\235=/q\023\2766\374\324\275\255\005R\276L\253\245=\312\261\344\274\000\270\255\274a%\006\275\2209Z\276\352\003\272\275\353\021h\274\364fa\275\007@\257\275\256L\277\274k\350#>\232\013\000\275\363on\275H\357\342<\0325\016\276\206\027\316\275\032\351\224=\002y\021\276j\217\227<$\262\306=lh(=\240~\203=\327V\202\276Xm1=\200H7\275\322\311!\275>\250\345\275\241\006\332=<\001\331\275\007.\221=\255U\"\275\273\377b=\016\242+=\370\307*=\034\273\372\274\014/L=62->\274\0012=\030\235\345\274\311\320\301<\rw\212\275\024g\267<\005U\246\274\231\323R>D\326O>\005\002\305\275\220\025\271\275\"\332\304\275\370\026\270=\020)3\276\253(6=\362\027\'=\236\247]\275\340\223`>1\326\226\274)b\034=\211 \3759\226\332C<w8D=\201\263\312\275RO#=\321\276\325\275\310*\207=\326+\233\275t \377\275\264C\331<n-\323\275\376\273}\275\265\262\210\275H\273\334\274fe\277=!U\357\275X\346\033\274\377KD=\320~\200=\271x\r\273\341\034\277:cL\265=\202[\352=\365\230\266\274\367Q3\275J\031\003=!->\275`\262\376\274\233\352\372=6\307\265=\225\005\345\275\223\2760<$*.=lM5\276\202P\035\274\230\343i=M9Y<e\\B\276.\013\363\275\237\212\005>\3625->\260\355\350<\2547\252\275\026\243\005\275(\010d=`\351\205=\354\345\302\274\260P8\275\010\032\354\275\255\265e\275\342/o\276\324\'\215\274\257\204\026\275\264\226Q\275\211\200\027\2764\354\007\276C\222N=f\231\022\275\005\222\360=\022\317 \275\355\303I\275p\332\254\274\341hQ\274\374\225\016\275\227`\256\275<\227\006\275E\321\217\275>\262\241=\227\256\004\274\301W\323\274\230i\025\275\205\224\346\275\363h\326<\264t\246=\034aO=\333\2313\275\204=\341\2757\335\275\275\211\331A={\221\230=\017\354\377\2742\216\305=\316\002\271\274\314\307\276</\310\003\276@\330A<\214\330\203\274L\356\224\275\272\3573\276\\\246\234<a\347\330=\037\244\'<i\276$\275\273e\027\276\305\325u\276C\000\262<P\253\226=\372qY=\224\355\001>B\334\350\275f`\227\275\274\314!\275\027\374m\274Q\202\241:\316\257n=\037\221\3559\357n\031>r\030\227<\251\312R=(\304x\275\000_\027\275\260\315R>\302%\343;xl@\2750\324\222\274\334\322\013\275\220\346\020>\\\276\000>\\\026\316<\010b\030>\020W\014=U8\216\275}\303O<7\225\205<}\\~\274\264\013\235\274wC#\275JE5=\274\027m=\220>L=\231y\211\276\320f\273=\241\310\247=\262\222\300\275\206\000S=\272\357]=>\362\304<\232\177\210=\325\024L=\327\024\334=\227\037\336=\205r\310\2752i\350=\034\270\344=f\360\037\276Uq\376=Y\206d=\033\327\272\275\n\007\252\275\336\377o\275&\266\252=\227O\342\273\356\273w\275\375\256\304<P\366\252\275\214\207#\276\365s\267\275jB\322=\277\002_<ov\325\275\275T\212\274S\300\r=\372\272L\276\202+\247\274\334\321a\275C\225\234\275\327\223\264\274\031\216\314\275|\353\202\275U:\260<\000;\001\276}l\311\275\2434\320\275\215\217G\276\303A\270=\2406\320\272\036\311*;HV\037\276v\230\343<\347[\022<\355\r\360;\037\256\362\274\275\236J>\345\236\213=\327\242\366\274\244xK\275\242!\005<\234\022\005\275\253O\035\274\t\177\241=}_\200=\216\345z\274 A\224=E\013 \274#\257\037\275\243\260|=Gf\020>A%B\276\207\264*\275\323\272|=9\t\320\274d\273\006>\2546\267=`7\220=\264\023\336\273\302by<\357\315\202=I\210\312<\260j \275\367\240\252\2751\'\031\276\272\353]=\356\307T\274O\230\344\275x\2311\276\023\366 \275\347\253\212\275\231\220\257<k\212\242\275\322\204|\274\253l\035>X \301=\310JE\275$3\353<\342\n\345\273\336v\021\276/\277\304<\377\272+=\031\324\217\275\245}\262\275O\274\036=W^\231=\216Pt\275\225\347\017\276\206\326\371\274\216\237\023>\253\2570\275J`\231<Qk:=\371d\334=\365\2531\276\313e\201\273\020\234\327=)\200\316\275\327\363\313\275\321\3039><\025\354\275\213\235\013=\337\305\323=\\\024\036=\336c%<3j(>Fo!=\246\340\026>:\321i=\216\022\245=\003\277\305\275\334\343\013\276a\310\310\275\213\2550\275>\376\370\274\223\250\006\276?\307\023\275\33393=\177\207g\275\272\200\236=\225\"m=\227\343+=\221\350\225<\n\354\252=\321B\017>\336_\322=\235\002\330;\312\203.=\003a\267\275\233,\367\275@\275A=K\247\225\274\242D\220<\'a\303\2751\273`=\314\347\322\274\247\322\232\275\017\347\256=~8e>1\312\332\275u\212\017>;\023\214<LU\003>\335\371\t=\332Q\325=j\340\241<\341\252$=C\030\350<\210\260\014>\252x@\274\0337\313\275\352/f\275\336u5\273D\271$=3\374G<r)\367\275\177\245;\276[\264\'\276\352~=\274\315\250\021\276\231\013(\274\361 2\275M\335\316=\313\314W>\234\307\273\275N\017\305\274\322\260r=\353pJ\275+\270B\274\007\311\237\275\025\253N<Me\017>hMR\275\032\270\026\275vle\275ZE}=R4\251=g\330\355<\264\370]<\210\246\203=\234\225A\275U;\232\275\031\371{=\244\001\252=\223P\273\275}\037p\274\227A\370=\033\361\t;\277\336\020\276\205?\334\274\233?\352=\364zL\275\311s\017>|\205N=J\3511\276\021\217;\275\002\320\323\275\336,\310\275\252G\014\275X\014R\273\007`)>\331H\211\275\225\014\351=-\207\252=\275\336\301=\214e\225<\332\322G>\013?d=<I\276\274ND\316=<\352\016\2755\355&\275\247\352\275;\257\0051\276\243iZ\274\037h\025=\202\367\034\276\220\264\016\275\004\360\234=\374QE>ly\310\274\203\331#</ew\274\332\255\206=\327\313\022\275`\341\201<\273\304\247\275\024\313 \276)KH>\301A1=f~\r>\352H\325;\325\202\271\275\361!\006\275z\256\243\273\340\313\362\275\360\223j\274\020\340\021\275\333\247\002\275:\2444\276\376\361\254\272\206q\276;V\204(=\367\331 \276v\n~=\031\361z=]m\245\275\361Z\341\274\340QC\274\373\255%=\302\341\014\275\026\353\323\275j\177B<\341\231\224\273\305p\345\275[\320^\275-\023A>\314\232\303<N.\322\275\210\372\326<\213\257W<\016;\273;\247y\024\276m\027N:\035\254\244<!\253\031\275 \303B=\376\321\006\276\005\244\031\274s\023\023=\371\232\025\275\254P\r\275=\230\361\275}\315\254\275\277s\347\273\260\203\007>\263\3330=\272\352\003\275\036\240\245\275\034g\017\276=;\321=\013\225\313\275\352\010%=\n\247\210\275+b\256\275\027\220\033<\314\000\025\276jF\252=\314\004A=I\230I\275\247b\355=\325\264\356=hT\007=\000\274\305<%qR<\376\364\026\274\303\324\337=\016\000\361<~/\202\276\251\250\322=\341\2525=X\235s\274)\215\260=\271\013\210\275\314\325\327;\001\231\003\276y\364\222\275\217\361Q>;4\n=;U\031=\332\370:<y\026\210=\271\216\001=\244\3158\274\007\342\225\275s\326\237=Zl\342=m\013\362=1\257\362\274\344\341\202\275\006\224\304\275\227\342\226\275\301\006}\275\206\376\352<\314\302\225=~\321\344=:\007\276\275\002\315\024\276eu\311\275\010\007\235\275+\310\202=!>\020\275/\303C\275\210Ci\2756\336\370=\203\250\341=\335\213?<\343\303\327:\360j5=\010p\250:\305\251J\275\010\007\370\275\020~S<\007\255\215\273\325\007\243\274\001\244\345=\250\270\244=\346\334\214=\336{R=\234\365==>%\003\275\250\274\221=Av\315\274\033\236$\275\252\t\242\275SH\020\275\233\242\230=\023\312\344\275\315>\010\276u\365a\275<\253\227=0E\013>\003\347\027\276_\341\210=\026\201%\276r\004\001\276%\244\345\273x\036A\272ZK\025=\270\3622=\0172\352\273\340\365\206=ez\357\273l\236\321\275\34611\275a.\t>\347\006h>fi\356=\214\022D=V:\260\274\'P\000>\314\301\003\275y\261+>i\021\273\275\301\244\242\275QKV\274h\361]\275 \2073\275(\276,=E\352\016=?\2274\276X\022\255\275\202x\215=A\261w=I\223\270\275P\332\253\275}\026\357=*&T\275\203\334\034>\312x\037>%$.:\271%\234\275/\tq<\260\341\353\274\335\325^\275\225H\313=|\005<\275\313\005\263=\325Wz=\"T\345\275xR\370=\263C\316=pW\267=\323\020\007\276\362\362\361<f\237\022=\221\034\231=\223i+\276\347Y\330<\326q\271\275\336\342\331<\343\352\374\275?\227\242\274\316\347\013>\262-\254=\361\032\203\275\024\217\350<,\277\363\275\357\361\211=~\341\277=\366Z\264\275\263h/\275\231\022\031\276\0270\353\275\360\037?\275\371\372\365\274\322\253\034\276\\\027\016\275q\0056=\263\2562>)R(>\273\2540=\322M\356=\n\220W\275E;\225\275\226r\310=h\253\\<\240~\345\271z\331\335<*H\272\275\3358e>V\320\003=\201.\037\276\302\204U<~0\222\274%Z@\275\273\255\241<@\030\240=\036\224C=tTH\276\313v\360=Ms\255<\256c\231<\375\221\205=\354\377`\275\355\350\216\275=\323{\276\327\301`\2744\345x\273\333\010\274=\003\362\371\273\372\237\177<\032\207h\275\362\206#9\016\301\004>\227\007\211=\013\311A\275E7\205\275\353%\367=l\362{=\002B\361\275M\201\026\2760\342\t=\001\327\276\274\267\\{=\245X(\276\251\315\267\274\022,<\276\316\353q\276\035W\334\275\024\253\301\275B\326`<\242\225w=sdJ=\234\222\324\275q\333\330<\033\341\005\276\245\006?=\356/\023\276\222\273A=*\t\336\2754y\"=\353\212`\275\253\247\264=-H)>\352\336\010\276\223\332c<x\270r:4Bi=y\000\225=\220\204\226\274\250\021\022\276\267H\326<Fe@\275E\337\315\2759\350\247=\207\220\271\275\no\225\275\246\314T<\035#\001=\262\247`\275\260\177\336\274-\220\027\275\363\356\277\275\017:\201<\241\013/>o\231$\275\341\035_\276J\320e\275say=^\366\214=\320b*=\'\254Z=\264\232^<\352\326\251=Cu\330\275\353\243/;\217\324[\274.\354\367\275\265\365\232\274\000\341N=\322 \257\275\213{\033>U\374i\275\0161\204<\031\214\256\274\354 \240\273G\006\257\274u\244D\274\273\242\356;\274),<\300F\305<\364\234\301\275 P\361=0ZG=Bn\027=g\010\333\274u\242\264=\363\270(>4o\001= \332\273\274G8 =\037\2676<\227N\254\275\206\325B=\367\342\335\275\247f\">\207C\270;\346\360\313=\256\025\370\275M\365\355=\336\344\221<\363\203\331\275&\245\253=\3723p<\034\207\246=\361\031\317\274(\'*\275\233\240W\275^`\237\275\317\036\253\275\247\326o=\002\302t=J=H\275\364\351\000=\006\356;=\321\371\253\275\3521\253<\246\327\225=\336\030\307=Ap\016>\206\220A>p\t\002\276\323|\272\274\030u.>q\357\r;\265>\302= \220\241=+\342\340=@\200\371\274\344;}\275\244\360(\275\014\240\377<|\352\206=e\001P\272\312\356\t=\201\016\t\276\201\213\026\275\376\304\177\274\360\340\365\275\265x\023\276V<\024\275\035\026_=\201\330\026=0WB=\2207\230\275\256\026\277\2745\251\006=\303\316\363=<\345\264\275\217\227\224;!\322N\275\213?\366=\245\355\n>\032)o\275\037\267(\275\"\224\203=f\355\334\275\252g\035=\250\007\302<h\217\236=\251<~\276\223\333\314=\313\344W\276\213b\323\275H\305`\275\270|\213=z9@\276h\335\031<l%\252<=\212\347\275/\177C\274YP/>\307\341\004>g\037\236\275\204\301h=\251\322\007\275\212\024g=`\353\022=\323~\027\275\025\311\337\275\321\260\212=~\243\357=K\225-\2753D)>\243m\322<\240\"\236<P\356\232\275\346\364\005\276\356\025\206\275.\270\264=\033\317\325=\354t\311=]\222\326=\242\252\003\276k%\013\276\221\035J=W9\210\274yfd\274<\376\361=\rt\247<c\355.\276\035a\000\275\217\3767>\020m\312=d\352\257<\305\336[=c\374\267\274\267\021\036>\3451\232\275M1\372<\254\364\033<\227\230\241\274\224\3625=D\370\n\276\003\376\357=\351\037\234=\227\244_\274\311\230\202\274\023\263H\275\221^\334;\317\365\301\273\375A\235;v!\331\275\265w\272=m*\256=\2059\312\272%\013\177\275\027Z\377<\340\005\262<\337*\376\275\373\006\026\276\264\023O=M\206m\276\350J\205\275\260`\336=\221l\270=jx\303\275P\207\327\274\361\'o\273\367\204\352\273L\020h=\271.\236\275\350{N\276\320\003\245\275\006(\225=\371\355\006\2757O\032>(i\200>\221\353\263:\032b\010\272 \216\177\274\363\312\301=\206/\030\275\342\010\277=\026{\240\273\357#\033<\224$\335\275R\375\304=o\257\315=\271\027\345=\254\265l=3\004\n\276\333\221:=)\366k=\213\350&\276\275-Q\275\222\037\'\276\210\262\004>\014C*\275\226\373\231\275\014\203\003\275j\376h=\263\253a\275\273\265\257=L\321\271<D\357U<\033\177\372\274\314\353?=\242\244\215\275\337\326\017\276*\324\325=\264\320\033=\305\'\306=\317\n\370\274\245\322\256=\200\203<<\366IM\275:1{\275u\227\003=,\312\252\275\252\200\212=\362\256\037>y\305\231\275\333M&=a\267O\275\247\024\247\275\336\n\025=\223d\021\273\0253\230\273\250n\017=\251\211\240\275p\265\230\275\363t\213\275,\204\025\275_B6\275\367X\234;\220\347\337\275\366\306\266<\226\022\334\267\020\242U<G_\330\275\227\222\223\273\032\312\353\275h\356+\276\032$\205\272\351\347)<4L}<k\n*=\'\227\027=\177r_=\210u&>\363!\245<l5\247\275\025\216\207=t\275\244=\215KV\274\203l\202<e\342g=z1\257\274\202\266\r>\271T\263=\235\\\300\275\211\026\377=\330\322}\276e\242\332<\211\234e\274\304\221\371=\004#\013>\356\237\030>U\326\306=\276\264\347;O\030K=X\327\331\275xH\301\275#\303\303\275\312\253H<\330\307\225=\275$L\275L\021e<|\246E>\242\275\270\274\205\020\004= \234G\276\341\023\217=2\345\014<\375\247\230\275\346,\275=o\227(\275\025t\247\274\365\221:\275\251\230\233=\373/\227\273<\214\257<\307\345T\275\200\256\246\275\002\024\230\275\212\373\201\274\000\257\307\275\262\312\033\276f\rz=\244z\000\276\r\363\016\275!P\002>\231B\215\275\037\236\321\274\'\016\340\273\005R\342;#\305\220\275\350\032\226=\370\242/\2758\341\370=\352\347\276\275O\321\010>\335r\242\275-\265\250\275\227e\000>EL\002>\020F\255\274?]\006\275\212>A\276*Q\210\274@\277\256=R\243\240<\rK\205=0\347\333\274\240\271\315<\334\2545\276HJ\001\2751\362\311<\333\225?=\231N\212<G\224\217=\257\344\353<*\302<>\265\326\315<\265\245\323=\037\261\366=|-7\275U\024\220\271\036\335\327\275\210\213\r\275\013*/>\2766_>\243\315\251<D\025\030>\311\330\303\275\330\366\031\275\033\005\010=]\030R\275LM\221<\361M\265<\354x\256\275pFP=\367\240\216=\t\2707<\314/\004\275\004\231\010\276\n[\272=j\302\225=}d\031\274\350\271C\271\370\t\267\275B9\313\275!\307\007>\361F\200= \253\345\274\306\025\024=\205}\207\275\201b\363<\313D\273\275\311\035\361\275\215p\251=\324\367\304=O\027b=\203\267\255=\312\267\343<\2758\244\274\033p\216\275\272\200S=*\272H=!\322C\274B\254B=\277q\215\275\034\357b>3\250\233=\347\213-\2745`\352\275\356/\371\2741bd\275\371\212\334=\324@:\275\216\270s\275\270\210n>y\302\373\275\026XY=\314\2744\275g5#\276\222\237\245<jR\231\275k\201\240=nh\t>&\263(=j\355-\275\350\305K\275\2055X\276\363xD\276\212\336\337;\227\331\260;\025\316\227\275mi8=\215_\211=\320m\201\275:b\254\274\277\006\360=G\"\237=+\330\n>\272\r\316\274\216\374h=\364Yf=\202\037O\275\247\033y\275\356\"\376:\216\251\t>\324\316\236\275d#\360\274\374E\221=\343:\017\275\327w\022\276\367ZM<`\201\337<\254b\232;U\200:=&\335W<\235\253H=0Vi;\314>C>M\277+\275\304_\311\275p`\257\275Wj!\276e\227\306=Z\230\253\275\270\237\332<\006\333\377\275\270\001e=!\017\027>wyC\275~\3678<\3546\264\272\275\031\r\275\025\001\336;\003\217\214=\243\034\375<6\275B\276m\371\374=QC\303<\364H\226<\006\025N\2766d8\275\031@\"=\364\332\366\275\370\212\004\274\271\206\310;\031\374\361\275\337\364\250=;\177`<\"\024&>o\327\305<\021\346\227\275=\273b>~I\200=\360/\303\275\252\305\261=P\337\222\275\014\212\213=d\263%\273\377\036\022<\202\314\034=\365k\343=\331\272Z=j\305\341\274\030F\030\276\261NA\274\250\226\270\275\022\277U>\373\203o\274\003\010,\275\202\216\342\274W\227R\276\3642\003>\215\203)\274\363\327\351=m-\233=#\033~==\"\273=?~3\276\247\032;\273]\266\277\275\351E\303:\251\001\027\276IC\253\275\253.;\275\3703\273\275\322\272:=\025\331\356=\003\237;<\223r\002\275\251\371\241=\\\343\273<v\237\233=\003\031v\275Df\254\274\235>\344<\376\016\024\276\256\205\316<\227\030&=t\2205=,\274\362=uc\350<bj(<L\005\217=\211\tI\275K\312d=p\244\325=\360\356\271<+(d\275\3015\214=\027G\016\275.\320\373\2752\275\026<\213f]\2749\267\237;\313\210\250\275<U\n\276\374\016\263\275\222E\256\275\376\226\301\274\0317\314\274\373\267\n=\357\310\026>\371U\305\275\222\340\276\275.R\010>E\332A\275\230\335n\276\3345\235\275\203\333\244=C\264\246\275\253Vh=[~2\275o\204\267\275\300*\251;m/\001;a5b=\304\370\000=\037\227\225=\2057\211\275\202)\276=\273\373\372\273\002\216\\\275I=\216\275J\263,>\352\373\323=\2430\002\275<\215\310=\001\036\274\275\206%\313\272r\330\317\275-w\010\274\005\013\004\275Q\2031=\265&Y\273}\030=\276\234\231\317\2754\"\204=G+->\210\213\357\275\n\216\036\2761#\257\275\365\3153>\235\361*\276\'\241f<\0206j\275\267J\324=\367y\256\274\025.$\276\024!\024\276\n\3276=S\263h=x\255\354=\221.\037\275\237A\265:\304\376\035>@5\000\276\224K\202\274\335j\034\276\250cX=\216\317\025>\014\310\223=\241\302\356\273?(\274\275\002\375\220\275.\313\331\2732)\314<\264\276T=\327MW=\rX\332=z\200\317\274\360\211.=\306\24439\265v\226<\225E\026\276\020p8\275\235\377\347\274\353h\314\274 s\217=\243c\r\274H\353\227=6ZA\275\226u=\275\2650\376<\323\234\022\274\232Y\010>y\007f=\353\177\247\274}_\303\273\005\243\006\276\006\316L>\267\311E\275\360\275I>n(\204;V#\177:\215c\222=\372\376\257=2\252\004>\271Y\034<9@\206\273f&\005\276zJ\234=\222t\250\275\202-\316<\266\030\253\275w\326\371;b;\270\272\255f\336=\212\265y\275\201\017s\2758\337\266=cq3\276\364\204\306\275W\303\367=\310\336Z\274\275\262,>\3459\254\275\243\323\272<\023\201H\274,\313\237<\350\031\315=0>0=R\353\236\2755\207Y>\243.\200;\266\177&>E;\030<\335x\005>\3400\032\275[p.<\265@\025;\366 \337<\033\254>\275\020\231\256<\304\224\002>\017P\204=\333\251\021\276\367\326\243\275\373\026\261\275d;\362=3Z1\276\260\024\273\274u(\026=A\357F=\016\0131>\230\212\253<\237\355\210=abQ\275\'M-\274\344\275\320\275mE\313\275{\242\235\275N\177\317\275\210\000I>\216\275T\275;\017\356=\254/ \275i\234\345=VS\032>p\365\227=i\030\274\273%\276\037\276\t\014-\274!\262\257<zV\020\275\277R\252\275U\345v\274j\223\237\274D\311\241<.\235\242\274\006\353\203\275lm\355\273s:\014=Bn5\275\333w^=|\002\320<\222\350|\272W1\247\273\354|@\274\'\360\352\275\233mv\274)}\014=\234:\277\275y\326\224\275#\211\263=\253\357\005=\230\3003>\371N\\>>\034\341\275 \262\024\275\020\376\310\2747\206\017=\377\233@\274\262\235\252=\250\025\305\275\331a8=;!\322\275\361O\031=!-t=P\363\211\274\235Nb=\0071\220\275*q\241;+\3402\275~m\020=\014\213^=R\344>\275\376=g\275\202\320\253=:\351M\275\237\017:\275\333}\322=\310(i\275Q\352\236\274\336\341\347\273t<\037=\365\031J;\226q\231\275XT\253=j\363\243\275\356!j=n\315\345\275\367\236\205\274\222\016\317\275n\227<\274\327\344\314\275\357\212\024\276\371_T<_\331\'\276\357\'\034\276A\225#>\217T\312=\021\252\005>\263\245\024= \321\266=\250\302\340\275\313p\200>\362m\202>Ic\320\275\024&\371\273SX\275=:R\265=}\200z=\231L\201=\366\014\013;\177\354\355<\000=C\274\364I\243\275/\257\224\274\243\034\211=\177\013\331\275RR\257=E\326\n\276\277@\n=\2773\242\275\370A\026>0=\203\274\303O\333=\301\003\326=w\014\204\274\t\320\207\275\252\235O<9W{=\217\223\n\276Z\030\203\275\022n\310\273\275\005\357<\313M\221=\341r\335<\270\225\024>\247\351\314<?b[=\243\303\034=S\207M=\376\035w\275\240\r =\004\371\215<>\367\251=x.\243\275\244\331\247\275\2541i=\253\366\316=.\332\025=\315l\204\275\255\212\334\2753r\226\275\265\256\212\274=LV<M\215\302=S{M\2761\245\023\275\231\351\004\276\317\001S\276\n\247\365=\006$\217\275\331C0=v\037+>\356H\312=\352\345\205=\266o\345=\314\233\241\2758t\266<7\211\257=\367g\244\274\235\274\270<\2359S\276d\366!<Ptt\274\366\013(\274KJ\203\275T\373\203\276\260\253=<\27451>0! <\341\332\r\275\341\230\032>\303\007\014\275\314\265!;\310)\374\275#\034\242=ds_<\204\243\355\275\254\204\205<$J\025>\027\262\267\275D\3726\276FlX\274\230\274\242\271Y?\245<\200p\301\275\353e)=\224\027T\275S\261\240\274\0027H\276\3563\211\275 \255\001\275>\201\324=^\250\303\275;\353\251\275`\375\274\274\245P\237=\217\255\274=\005\317*<\256\362\274\275\217\222\335\275\217E\237\275\201M\205=\312\257R>S!\206=rn\003\275!(\017>\030\351\330<\241:\276\275\327U\211=hS\236\275\336\273t\275N\236\227=,4 ;\343\373\036=c^\360\273\020&I\276\021E\225\274\252)\270\275d\002\344\273\323\203\217\274*\254\310\272\247)\233\275{\241\234\275a\222z\275]\327\221\275\t\377 \274\033\245\353<\311y\260\274\030*s=\336\223\240\272\355\323\311=\336\267\013\276q\206\313\273\270\253\230<\'<\r\2765\363\317\274\2044\352\274\277\256\352=\220\306\031\275ux\241=\350\333\264\275\342:\027\276H[\017<w\2321=\241>\210\275Z\214!\276\325\001\025=0\316P\276\211C\212=\300c\247:\254\212\022>Y\177\377<\340\007\326=\227\"\234\275_\205!<\275\377\372<&,\233\275TmA\275\334\020\265\275t\232\222\274TZ\270:$&\212\275\261\230\231\274\303u\372\275 \332<<g\241\204;D\377\274\275Y\004\211\275V\'@\273v\3609>l\262\230\275*\224\325\274f\322\035>\260\032\252\275\374[->\256\2703>o\256\206=\344\243\177\273\2540\323=\256\033L\2755\025)\276\321\325\004\274\310]\264\275\235\tV\275\277V\362\274:\234\327=Z4\225\275\327\2164=)\277\004>dn\225\275Xgu\275|\214\377=\362M\032>\374\367\343\275\305\350\214\275\310\356\213\274l\364c=\034\226\007=\276\315\216=\234HC=\376_\023;7\344/>E`\212=\230\334\367\274\211i\013\276\324\361/\275\010\002\035;\206\350\260\2759\303\007\274\327\177X\274\271\234\207\275\302\212y\275K\312t\275\227=O=6C\335\275\"\357\301\275\250\302\020\275m\232\214=\320\323\276\275\250\251\303=\376\213J\275\\W\212=\253\027S8\317\224\201=\300\217\304<\376f=>\022\243U\275\311\252\333\275\375\377\207=\244\334\334\272<\257\340=s`%\275\372\017\032=\006V >\246vA\276`\005*\275\345hy\274V\323\356=z\220\001>;\265X=\216W\036>\242\273\225=\210\375\226\275y\303\250<I0\"\275\346\226\031\275au\005\273\3272I\274\353\242\362\275!\350\027>\024H.\276q\351a=rC\250<_\n\355\274\235\315\014>\254Q+=XI\322\275\246j_\274,<7\275\272t\240=\236\200\322\275\271\001\227\275\255sG=\026\322\242\274\346\325\025\274\225\311\233=8f\302\275\365\367h\276\212\357U=[\233\364\275HF\246\275p\377\004=\206\013\364=\325`\204<\266J\"\275j\322\361=\024F\245=\352\005G\276\177\325\204=J\355\355=\201k\373\274\376\353\037;\246\007\356\275\321C\374\275\n\017\216\275\003\233\364\274F\226\235<\200\347\024>\370\230\220=G\276!=\230\003\001\275\231<\356\275\332\"\023<n\324G=\335\311\366\271#S5=\235]#=\001>\316<S\244R={$y=\3131\262=V\332q=h\014j\275\221Q5>C\335\353\273-\005H<\224\277g\275\304$\036\276\326\350*;9\216\322\275wz\222\275\365\217\230\275\'A\247\275d\2025=\373\3470>-\017\276=\031T\220=\267\372\"\275j\270\331=\005\345\313\275\330\242\304=\317\t.\276\032\355H\276\370]\232=\216,\372:\321c2=7\207\001\275\352\241c\274A\"\311\275v\240\207\276J\3554\2759\036S=\315=\252\275\032\277\023\276#\3012=W\023\023>0\304\373=E e\274^\332\014>\323\037]\275 L2\276p\216\222\275\247\252{=o\324\304=\331V\312<\243\274&\275\316\005\216\275\346+\215\275Q]\r=h\217\337\275\303\216X\275\300m\212=\337\334\271=\306\334\315\274\227\232/\274m|\221\275\221NU\276\346a\367=\036W%\275\220c\315\275N1\210<\216\025\344;t\033\205\273\201\234\n>\372N\313=\2176\362\274e\"\335\275\206\036\251\275\203\262\231\274V\311)>\221\312\275\275\025<\316\275\2669\301=\023\020\264\274M\215#=\034(\246<>\370\376\274[H>\274,u\r>3D4=e\320\232\275\334\216\022\275\332`\324=\n\360G=t\216F\275 \300\232=\265:\301<Z\027?\274\'\226_\275\225\033\214:%@5\275jH0\275\274\252\317<|\342n=\273B\206<%_\256\275M]\323=\367\251[\275\325\325M>\'\210Z=\262\326\254;Q\224\300\272U\243\321=\031\025\216<*S\214\275\267\345)\273\266\213f=\003\312\270\274q>\343<\372\311X\275t^\232=\336\022\226;\340,i=0\344P=(\233B\275\327\277\255=\n\226\344<1\024z\275\320\250\305\273v6\016\276Z\375[=\350/M>\310o\324\275\2269\003\274\260\211G\276\003\362\234=\321\007\271\275\204E:\276\177\205\235<\032\334\357=w\262,\275\342\3233\275S\025\032\276\r\026\036\274\276x\267=\342\000\317=y\000\275;\347L\023\274[\334j=\301\3450\275~w\271=\271c\355=\273c\270\275\246\343v\275\016\227\265\275\233%\376\273\374\003\204=\022\323\270\274#\177\255\275\223\251\346=\036\250\026\276bP\224\274\302\006k=Uo\352=\'\220\362\275\3434\272=\320\347\360\2756\330\350\273\363Z\024\274\n\264\273<t\342\257\275\264\277,>si#\275\"\217\220\275\342q\201=\365\360\037=\035\213::\367\346\002=\260\326\357=\344\375/>\023\262n\275X\'0\276\357\300;=\275\rL=*#\020\2757^\213\272\254\r\031\275\210\305\377\274\234=\024>\031\n\000<>!\373<\362\364\217=\2234\310<\2521\321\274\1775s\276\201z\302=\373+[\275\017s\013\276\343\240\217=\r#\023\2758Q\345=|\016}\274=\330\234=\372\002\210\275\253\271^\275\307\036\277=v\233\r>\203\332!>\250P\213=\352p\343=\014s\271\275qPX<p\031\270<\370 \277\274\231\205i\273\352\342T\275\036\330\262=\331\365W\275C\255,>p\032\273=\026(\244\274{\252M\275Y\3459<\352\312\352\275\315i)\275\226\031\307=\000\223\305=O\305V>\217?\253=\277\233S\275B\004\211=\252*\263\275\267E\365\2757\317!=\260\222?=3\301\004\276AB:>A\253\361\275\352\375\223;\014Tm<\243\014\214=\321+\301\2753\017\'\276X\2339\276_\225\306\274\373\034\255<\177\036C=vw7=\274\034[\275\265\247a>\212$\030>\375\244\323=a\3411=\311)\306=\225N\334;\n\251\273=,@\221\275Z\315\374=\262\030\256;\2351\206<\300L\234=Q\235=\275\013\347\320:y3\205\275\307\177?=Wv<\275\301\203\005=w\0135>\342\261r=\020J\317<\014\244\010\274\3236\314\273\"c\340\275\300\250B\276\007%\021=\374qn<\216\017g>\312\255N<\362\360\200\274\345u\226=\372\364\355\274\347\375\002>;\3072\2747\315\330\274\342\276\217\275\314\377\216\275\257\036G\276\357\336H=~\355\'\276q\253 \275\016C\"<\337\327\201\275\014\203Z\274\230\201q\274\013\'\225\275\306\213%>M\373/>\022\r\250=f\354\323=\300\3340\275)\314\222=A\312P>+-\316=\244&\246=\014\3221\275\242\n6=\232\273Z\275\214\272\231\275NO\220=\334\026\233=\312k\310<\372~\313:C\363\361;\007FO;!=\305=\376\n \2751+\235\275\017\213$\275\231\307\206<\261\271\340;\236?\357=\226\274\000\275\343w\222\275\272\216\t\275\"b\232=D6\222\275a\010\013\273W\3614\274\252\242\205\275\201\222P\276%\177\230\274\242(\213=u\357\364\275FA\270\273\000\223\365:\013\\(\275\345p\263=\301\273\265=\307&\225\275\3253\207\275\220q\306;Qa\000=\322:\027\276Y\355}\275\217:]\276\317\217S\2764\013K\275\226\007\373\273\016-N\275\373\177~=\374\\W\274\365\014\325<\245-\024>v\177T\275[PA\274T8d\275&\354\364<\204\035\240\274q\333J\275&\241\303\274\266\347\037\276\365+\236\275Z\245a=\005v\346\275\273\220z;g\361\277\274\334\316\001>\306E\030\275O\261\323\275EQ\363=mZ\372=\n\325#\275UV\323\274S\0167\275TYQ\275\327\336\007>/\223H\275\n\360\030\276\304h\244\2744\313#\275tzM>WP\252;\276\235\266\274\207&F\276k\354\222=j\246j=%\212!\276\236\305\204\275\313\'\253=pQq\276\000\355\'\276n\364a>Y\211\330\275\201\307\347=a\205\215\274A\r\032\2760\324w\275I[-\2749\366C\276\321D+\275\216x@\276\231,\036=:\323\'>\344\237j<,C5>\003\361^=\324\312\204\275\r\265X=z,\031\275P\265n=q\215\006>\311n\312\274\206L5=\037($>\022Sc\2740\364\347\275;\352\223\275#T?\274a\n\303=\014@\334\273g\312\235\275L\312\316=\353\217\006\275\006\371\032\275\367^\342\275)g\212\275\236\312\346=T=\335=\007\377W\274\333\035\314\273\331[\232=\220\241\222\27598\235\275\265f\374<\316C\325;\3563\315\274\377\\\026\276V\232\220<\347\231F\274\032\242\244\275[\271W\274\262\007\202\275C\244\224\274\002A\342<c\023\005\273JSk\275\204\346\344\275\006T\214<\022\210\303<\250D\344\275\271\3522=\035\2428=\020-\003\275q\210\027=\254\215\265=<\262\242\273I\222\245\275\251\217>\275Q\263\341=\177\323\007\276\227\364\210\275t\276@<\317SG\275\225\001\305\275\236\t\210\275\3260\021>AZ\217<\007\177i\275G\204\272=\355\261\\\270\303\020\374\274\210\246\005=\204\2250\275\344\330\310\274\177\021x=d\303\344=\207*\006>\017\332S=\246\323|=N\020\002<\375\006P:7\360\247\275^\2755\275\232\257M=\245u\203<C=\233\275\367\210\200;\375\010\302=e\346\317\274)\025\032=\201\341+\275&\304\223=~\310\272<\223\024P=\365\005&>\264\263\222<`\352G\276!\003\335=\341\021\265< $z\274\026\365z\275&2\000<dR\336\275\202\231\362=?\241\366\274I\363:<]u\313\275?\323D>\333%P=|\355`\275\254\326\022\275\204\321\010>\032\376B=a\200\257\275;B\243\275\254V\246\274p\367\016\2762D\213\273G\227]=\277\017\362;\330\020\271\274\242\265\235=C\237\205=\206\203+>\026\324\216\274\rr\315=\234Bx\274\024k/=\265\354R\275?(,\275\275\276*\275.F\254\273k\354\266=\367\3567\276\177n\221=_\266\320;\204K,\276\206\311\271\275\237\332\035=Y\227\251<\005\337G\275\"\031\347;\026l\350\275\014\244\024>=\252:=:F\230=F\3674>6w}=\037\243\216\275\306\301\021\276\240\033\267=\0061]=\255q\001\276u\024\217\276$\023\372\274\202h\020\275\343\013\016>\337\344\303\273\321Q\366\2751\315%\275\017Q\221\275\332\373\316\272/X\306=w\321X=\211\001\373\275\007\265f=Wi\267\275\034\224y\276\266\325\002\276\' \317\274\235\260$\274Z7\003;g<\265\275\300\234\275=7V+>c\270A>\322\205\311\2750\214\243\275^\007\264\275c\202\223\274\353\323\006\276\376 \357=F\202\034\275\373\222\245=7|/\274d\275\017\275\013Z\354\274\216\222w=E\272\017\275c\275\344\275\345\363\026\275\307@\224\275S\002|\274\211\210\310\275})\277\275FW\352\275\241qi\276\r\235/\272G\312\210=S\270\206\275\r\252C\273\244\227\234\274\207\352\024\27586\003>h\327\353;\322\031\272\274\010\014\t\275\365\323\017\273\034\2364=\367\356\014\274ef\323;;\302T=\356b\234<\3438\376\272\265\242\365;hW\236\275\231\352\250=:\2720\275K\206\035>\337\344/\275\314\0176\274\266\036\322=\353i\n\2754C\265\273\277\030\323;\016O!>\2779f\274\255@<\276\247E\335\274\342\376,>=#\364=6\271\003\276\354\215\327=\271\314\236=5\2470\275\023\273\275=\010\355.\275\265\017O\276\306 \243\275\277U\215\275w\263\272=\354Z\035=\234V\264\274d\267\215\276)\226\214\275\242\203\177\275\2616\353\274\237\177\'\274\235\325j\275g{\306=\333z\205\275\316D\025\274^.\275=\333!\342\275\370m\373<\320\354\037>\033\253\027>\251\031\353\275J\215\305=\312@\006\275jC\230\2756\377\273=\021n\371;\333\251\007=\014\332\210\275X}(\274q\244\205\274m\261\325=\335\253\226\275\0278{\275\256\344G=U\023d\276\351\3555\274\200t\372<\314\374w=\233\246J=~\266\024\276\251F\r>\205B$\275%\240\310\275\370\330 \2762\211\267;2gb\275\344\234\201=\231)\304<\005`B=\353\240\304=\246\264\304=\360\260\343=\251\246\000\274,\355u\275\343\005\332=\376\204\347\275~\203E=$M\2129\351\031\355\274\006Q\003\275{P\206<\216\274\257=|7\370=R\355\353\275\027\342\316;v>\374\275%\311\316<\034Q\025\275\026}\353\274\242,F\275b#\010\275N\300\020=xy\351\275lA\367<\2476*\275h\352d=\367\212!\275\006\374\207\275\233\337*>\315\314\315=\304n&\274~C\030\276\217\\\237;;\255\025>\024s\'=\177\203\210\275\256\021\273\275K\234@\275B\300_= \371k=\254$\360\274\310\237\375\274G\023\316\275\230\230\277=\242C\005\276d3\266\275\200\375\214\275\263*U\275xM\374\274\345\007e=\023\013\023\2749h\264\272\002G\223<h\355\220\274.\t==\217\037\312=\273?\216;\225\310\310=\354\346\222\275:\353\366\275\302P\323\275ro\365<\'\304\004\276\363\335\267\275\234.\032>\332d\030\275 et\272\177w\210\275\361\360\200\276j\267\357=\233UG\274^\016\210\274\256\247\335=\026\033\236;\225\177\256\275Y\376h\273\326\020\030>\330\370\364\274\035\257\305\275U\253\236=.uK\276\350\2640\274r?\221\275\035\216\207\275\357\003\277=?`\206=\234\030\233<\365\035\365<&\325\212\275\270N\272\275A\375\007>O7\007>F2\033\276$\232\r\276\320[\251;\330L\336=\200\225\314=\003\036;=\325\032x<\375\017\277\274_\373O=\332S\363;\356\000\336\274\360\344\261\273\271\306\240\274\267\301\013\276\361h\244=M\323\013>\363x\244=\000P\003<\203g\351<[\330\361\273\362\342\205=\370\001,\275\267\245\030>|\207\344\275\2168\353=\024\0300<\002\277\257\2750\025\242\274\234?\263\275t}\256>\214w\033=0\211\202\274E\300q=\300\235^=\022%\241=\037\327W\275d\036\224=r\326\365<*t\335\274\332\006w<\210\000\275=\205\\\306=C\367C\275\354\321\272\274\221Y\205\275\265\036\254<\214\271\001\274\006\321\200<c\013\t>\225l\367<H^\357\275bv\316<\314\022w;\341\032\272=\371R\002=\275k\204\275|\005\013\275\307Y\242\275\366\002@\273\314\360\321\274\226\255\363<\215\343\246=\376\267\251=\255\n\227=p.\366=\327\207\024>\351\032\327\275\321%#;\376\337\264\275 \251<\275\246\2630\273\316\372\031\276\014\275\316\275\177\314w<\356\315\251\275\213\353\333\275\034\272F<4l\306=\337\3219=\352u\332=In\345\274\264\345;\273\024K^=\326\023\n>\002[\263\272\36217\27522*=\342\332\235:O\0145\276lX\315=\214\2232\276\024\234\201\275\346\020\014=\344\3024\275\223&q>\355\363\021\275\255\030\016\274\020^\353\275\221,\311;)\004\331\275\t\026\026;\345\262\022\275\017t\320=k\205\215=\217\210\361\275\263fu=xT\026\275\302\213\014>g\327$<\341:\207\275(n\245=\215\035E=dU\216\275\254\252\204=\246\242\344\275 \373\217<9\325\232\274x\357\014\2752\r\266\275\266_8\274P\233P=\335\264\034>\202\003I>\244\313\003<y\223@=\217w\307=\351\311\216=\245$u\275\215\223<=\367,\021\276\2153\001\275\264\2569\273;o\257<}\353\323\275;\215\272=\"\214\226\275\3232W=Y\032\t\274\204/\263=3.\005=\257;N=. \315\275\245\311\244\275\273pB\275\344\361\t\276\227@R=w0<<\345\352\206\273\206\323\325\275\362\350V=i\254\220\275E\234~=\364\272\315\275\277\2523=H_\014\275\025\276\301\275k\361\221=\tV\364\273\r\324\352;T\311\021\276>c\345<\2717`=o\304l==2\314=h\355\303=P\356\261\273\310J\271\275\337\303r=Ll\305\275\304\244\027\275\350\0142\276\246H\253\274\2767i=\031\213r=\273\370B\276j\346\222=\324br=d\210\254<\251\007\232\2744\347\211\275H\020\276\273\204\377F=\014?\007=:\366`<6\334\210\275\344\363\272<P\214\235;a\342]<\210 \346\274u\251\365<\277R\275\275\275\2730\276\346c\233\271o\224R\273\'\312x\275:*;>9o\200\274I\352\004\276\177\t\304\275\246\346\001\276Z#\366\272D\036_\275\377#t<\010\002\232\2733\235\217\276S\020\377=\262W\342;\354}\371\274\266\272\177\275\223\263\276=|\021\351\274N7\234\275\036\360\254\276\374X\215\275\212\227\271\2750\345\271\275\354\242\212\274`F\372\275Z\021n={\370\245\274\024\267\207<+\351q=\317\205\023\275m\334\241=&\334\345<\342\243\373\274\254\3002>\211,\362=\021\243h>)ll\274\206\263\214\275\002\272\034>\023Bz\275F6U\274\354\267n=\274\277\237\274\351\212W\275\326\253\017>\016\023\037\274\255\271\371=v~\257=\000\232\024>\323\237\013=\361F\355=#\221\231=$\027\277=d9\233\275\275\310\340=\260*:>\2173R\275\333\"\242\272$\017\247\275\0222\235<O\337\200\274a\341\202=.\374\001>\021t\367\273\344\320e=\032\030V=\314p\230\275lZl>\271\271C>\202\335\241=\304\000$>8t\340\2754|\341<\016\245\177=l\375\277\275\230T\311\274F\204\"=P\234\303=\265\373\246\275d\203\357<Y\202G\276\366\340\203=\371E\032\276@%\027=\326\004\201=\363l\367\273\362\235i\274\031\334e\275\031;\235<\030\0048\275x`d=\273\261t=L\375\253=C\311\252\275\255KX\275G\233\214=\340\367\234\2750\302\006>^\235\037=\372\343\306\275d\307\325=w\366A\273\204\246I=\275}\016\276\200\341\r\275\232F|\274oN\300=pE\362\274\017\255\013\274\214tX<\351\325\010<\200\035p=\315g\245=b0\362<Q:\234\274/x\232;\231\3671\275x\354\025>x=c=\0176\236\275h\'f>\230\340\243=\322\214\n\275Uq\366<X\374\355=\266=\020\273\\\345\204\275V\343\255\275\223\204-\274\220\265\271=\223\320\024<\003\203l\275n\245X\275\373\237m\275\312 \256=B\t\223\275\203\364;\275\244\226z<\267\032\226=\027\231\347\275?\247\005<V\335u>\257\360$>\303\2134=g\232\024=.\021\372=\2473\020=\241\352%>\316\301\366=\354\225\r\276\022t\242\275\2506\271\275S\371N=\361:\"\275\273\000\307=\255\177\005<\336X\231=$\n\362\275-\276\227<\371\007-<\'\257)>\016\376F\275\030},=\t\332\262=\262p\t<\033\251\263=\333\322\205\275\222\313N\276\366\177$\275P\263\224\275\3035\237\275\3777N=\250(\034>\213\346\252=\312\241p\275b\r\234=\313\233\201=\202\374\256=\214\254\365\275\001\272\252\275\202T\240\275\324\347\315\274\337\310.=\361\344\213<g\335\330\274[|:\275\021\230`\275\022\254\376\274]Qo\275\"\355\320=\312\264D=\200\004*\276\305>\023\276\230`\300<]\366\002>\242\331\226\275Y\341.=\\?\033=\244\217\220\275\247/\373=\271\260\265;\000\001Y\276p\022\232\275\376\352\225\275\356\261\206\273\246m\207=\227\273~\274\251H6>A\023\234\275v\036p\273\327\3769<\356\265A=\306\014S<\377\005<\276\361{\306\275\332\210\207\275\266M:=\313(P\274\344n9>\204w\247\275\343\005\020\276\330;\341;\021#\321\275@I\271\275\000G\227<\367\260/\275x\013\207=\364\301n=\230\247\336\275\374\234\210\273\370f\032=\235m\037=\340$\212\274\261\332\213\275:o*>\337\304\305<\335h9=\363\355\007\276w\367\n=\253|e\275\303\275\201<\317G\305<|\334\336=\240\332\"\275[\024\376\274gK\347=)\335\037>\t\021\023\275s\302e>\3458\014\275+i\270\275YO\374<E\227\244\275\341\312`\274*\002\362\275\352M<\275\034}7\275\250\350\206\275\255\205\005\276\315tD=Z\2402\275|E\305=\364\254\270=\230\270\335\275\324\036\032\274\023\251,\275\264\177\220=\313\2406\275jD\031>v\tN\2763\325\023=\244\206h\274Bh\273=\351\"\205<\315\374(\2769On<d\r\003\276\373\212Z=\302\347X\275\212\006\007>F\340\356\272\322\336\202=ve2\275\031\243\367<\371\320@\276\275\322|\274\360\236\216=[\316?\275\n\037\202<oB\024\276\033\357Q=)\362\267\275nJ\227\273\224\372\326\274\211\211\201=k\211)>(\215\030=V\377j=\352\267\200\275\177\377~=`\r\021\276\357\017\'>\301\\\340\274kC\205=\237\246\216<\327\200X\275\311\360\202<\307\230\321<\340z/=\345\013\206\275@d\317\274\206\034\264\274\2173V\275\025XI=\273w\005\276\345]A;\033\023\260=v\245M\275=\212\272=\240\222F\276\204\307\213<\3148\267\274A\353\336=\346\333q\275\373\311k\273\214\337\024>\202~2\274\311\253\365\275\352\326\t\276;Y\265=s\310\226\274\222-t=\016PM=b:\241<\032\262\246=$\277\311\274l\3076\273\363R\236\275\333}\336\275\305\177\237\274\323\340\210\275\270K\213=S\206\267\275\352i\037\276\253\313\205=g\034\217\275\222P\205\275\366\256\203\274I\221\223\275\377\356i\274\241\331\026>h0\306\274\023]\276\274n\000\273\272$\034\335=\334\"\035>\257\261\215=\034\231?\274;c\305\275\250\235\247\275f*\242\275\315<\353\273\250\354\231<\336Q/\275,\3072=h\203}\275\0228\320\275\357\001R\274U\305\016>j\315@=\265\252\024>@=b:\203D\220=a\322\210=\020\t\332<Y\351K=B\360 \276\313\3669<\032,\t>\320\241+;\200g\375<^\273!\275\001\005\033>\324\317\257\275\351b\225\274<c\r=\252\021K=\226\023\347\274\352\264\334\275\263B \276\023SF\276\271\233\273\275\304\261#\276\010;\255<\357\017\227\273\"\301\250;}*\232=\265\363\021\276\023\252\373=\326}\341;\220{=\276\347\264\024\273\027YN\276\276\241\n=\261\t<<8)1<\036\323\204\275\324\361\313\274\340\251\212=\352!\215=Wp1\275\272]\241=\360<\352=\267\362N\275\304D{\275\326\231\232\275\373\243A\275\311\023u\276\235\033\362;V\001\373\275\020`u\276N\007\344:S\255\344\275c\367\244<\247LG>>\347\232=\276\343\343\275\360\217w\275\253\300\222\274j\366\251\275F\247\244\274\347#\373\274\035F*;l\345,\272\010\235H\275\276\327\262<4\0245\276vt\351<=4\250<w\3160=\202/^\275\223\273\220\275Ko\306=9=y\275\r\351]\274,\347\212\274T)\177<;\026\274\275\331\246\201<q\374\212=\\\2737\273\367n\032<\330\221`\274/\264i\275:\251\360\274\271Fq=V\022\223\275\264<\026\275\034\264W>\372\227~=\221\374\r\276\010\204\262;\004\014\025\276\305\246\005\276N\217c=:N\020>|\335-\276\356\265\360<\370\375\360<\024\252\336\2757\314\351=\335r\221\275#\023\305\275f\241\231=\200`u\276\0045x\275\303\\\031\275\363X:\275\345r\235=\"\207d=\261B\027=ch\217\275\311\200\023\275?\337\307\275\232\265\232<\222\3368>\262\336\214\275\032$I=K\206\203=\367\360\311=\272\330\000\275\253\361\"=o\311\226<\236E\022\276\267\256\350\274\376\302\260=}@8\275\230q\021\275N\004\334<v\004\303=\225S\036>\026\316f\274.\025\037>O\216}=u\272\246\274\200\233\333;\341\030\202\2753\271V=f9\241\275\260\241n=O\225\243\275e\2532\275\030p\215=\212y\366<\327z\"\275\324{\216=\022y\305=\321\322\217\275t\006I>\r\252\235\275\031!\226\274\033\332\250\274\001\327\236=5\331G\275J\327\306=x\347>=;\232\321\275\333\034\356=\347v\320\275\366f3>r(S\275\177q\207\275\210\025>;nt\312\275t\3507\275h\3512\276\006&3=S\334\252\274QsU\276\332\254\005>1\306\227\274\337zM<\356\341\254\275\376[\275\275\362x\345=\340E5\276\346p<\275F\3063>\202\271\330\273u\3349>6\240S=\370\302\315\275j:\315<9\357=>\350\021\232\274:\2003=]:>>\277\255-<\324\243\263\275\272\nw\274\177\342&\276K\334\004=kZ\000\276.\006\247\275W\312\361\275sS\367:\014\340_<\017\001*\275w\255R>6\246\216\275\237\207\205;\371ad=#/\200>)d\037\275\001\240<>\304\223y=\371`\"=]\323S\275\367\221 =9\266\025=\363\0162=\020\341\255=\336\0356\275\371\351Z>w\201\334\274\303C\304=g\300\202=\305\004\367\275$\201\302=\257\235\033=]4\251;kE\001<\273\350\303\273\271@\364=\tnM\276\270\272\241\274\210\202\014\275\231\233\025>,\177W\275\006\331R=%yP\275f\020\227\275\020\226y\275\324\244|=\20712=\006\332O\276\216{\026=\014OM=_\266w=E8\020\276+r\202<\2646\'=\0045\306<\363\023\352=8o\271=\022\314\252;\001\300\227=\327\005\310\275\330?\"==J\275<\3467d=\230T4\275\347w\333\2749\346E\275,\352\302\275C 5>pI\256\275\262Z\341<\016\253]\274X\261\234\275;X\203\275&4\020\276\300r\376;\014j\244\274J$I\275E\014:\275\356\304\\\274\024\351\352<\177\360C<\306\312\245<D]@\275\203\343R=V\327\342=\322@\274<w\260\007\2757\333\370<E\363\255<\331\250S<&\203$=p\307\251=\214\274\267\275T\021\002>\207*V=\363/\311=E\200\010\276\335\271D\275\263\215\237<\372%\233\275\026\240\312\2756\242\t;\324\201\252=<\020\364\275\220\360\365=#\344\003<)\321\033\274\023\300\316\274G\331\374=\004\373\207=\303p\250=n\333\215\273T\034Z=<\250\346=\005=4\274q|\006\276\244{\367=\247@J\276\241@h\274"
      }
    }
  }
}
node {
  name: "lstm_1/recurrent_kernel"
  op: "VariableV2"
  attr {
    key: "container"
    value {
      s: ""
    }
  }
  attr {
    key: "dtype"
    value {
      type: DT_FLOAT
    }
  }
  attr {
    key: "shape"
    value {
      shape {
        dim {
          size: 32
        }
        dim {
          size: 128
        }
      }
    }
  }
  attr {
    key: "shared_name"
    value {
      s: ""
    }
  }
}
node {
  name: "lstm_1/recurrent_kernel/Assign"
  op: "Assign"
  input: "lstm_1/recurrent_kernel"
  input: "lstm_1/recurrent_kernel/initial_value"
  attr {
    key: "T"
    value {
      type: DT_FLOAT
    }
  }
  attr {
    key: "_class"
    value {
      list {
        s: "loc:@lstm_1/recurrent_kernel"
      }
    }
  }
  attr {
    key: "use_locking"
    value {
      b: true
    }
  }
  attr {
    key: "validate_shape"
    value {
      b: true
    }
  }
}
node {
  name: "lstm_1/recurrent_kernel/read"
  op: "Identity"
  input: "lstm_1/recurrent_kernel"
  attr {
    key: "T"
    value {
      type: DT_FLOAT
    }
  }
  attr {
    key: "_class"
    value {
      list {
        s: "loc:@lstm_1/recurrent_kernel"
      }
    }
  }
}
node {
  name: "lstm_1/Const"
  op: "Const"
  attr {
    key: "dtype"
    value {
      type: DT_FLOAT
    }
  }
  attr {
    key: "value"
    value {
      tensor {
        dtype: DT_FLOAT
        tensor_shape {
          dim {
            size: 32
          }
        }
        float_val: 0.0
      }
    }
  }
}
node {
  name: "lstm_1/Const_1"
  op: "Const"
  attr {
    key: "dtype"
    value {
      type: DT_FLOAT
    }
  }
  attr {
    key: "value"
    value {
      tensor {
        dtype: DT_FLOAT
        tensor_shape {
          dim {
            size: 32
          }
        }
        float_val: 1.0
      }
    }
  }
}
node {
  name: "lstm_1/Const_2"
  op: "Const"
  attr {
    key: "dtype"
    value {
      type: DT_FLOAT
    }
  }
  attr {
    key: "value"
    value {
      tensor {
        dtype: DT_FLOAT
        tensor_shape {
          dim {
            size: 64
          }
        }
        float_val: 0.0
      }
    }
  }
}
node {
  name: "lstm_1/concat/axis"
  op: "Const"
  attr {
    key: "dtype"
    value {
      type: DT_INT32
    }
  }
  attr {
    key: "value"
    value {
      tensor {
        dtype: DT_INT32
        tensor_shape {
        }
        int_val: 0
      }
    }
  }
}
node {
  name: "lstm_1/concat"
  op: "ConcatV2"
  input: "lstm_1/Const"
  input: "lstm_1/Const_1"
  input: "lstm_1/Const_2"
  input: "lstm_1/concat/axis"
  attr {
    key: "N"
    value {
      i: 3
    }
  }
  attr {
    key: "T"
    value {
      type: DT_FLOAT
    }
  }
  attr {
    key: "Tidx"
    value {
      type: DT_INT32
    }
  }
}
node {
  name: "lstm_1/bias"
  op: "VariableV2"
  attr {
    key: "container"
    value {
      s: ""
    }
  }
  attr {
    key: "dtype"
    value {
      type: DT_FLOAT
    }
  }
  attr {
    key: "shape"
    value {
      shape {
        dim {
          size: 128
        }
      }
    }
  }
  attr {
    key: "shared_name"
    value {
      s: ""
    }
  }
}
node {
  name: "lstm_1/bias/Assign"
  op: "Assign"
  input: "lstm_1/bias"
  input: "lstm_1/concat"
  attr {
    key: "T"
    value {
      type: DT_FLOAT
    }
  }
  attr {
    key: "_class"
    value {
      list {
        s: "loc:@lstm_1/bias"
      }
    }
  }
  attr {
    key: "use_locking"
    value {
      b: true
    }
  }
  attr {
    key: "validate_shape"
    value {
      b: true
    }
  }
}
node {
  name: "lstm_1/bias/read"
  op: "Identity"
  input: "lstm_1/bias"
  attr {
    key: "T"
    value {
      type: DT_FLOAT
    }
  }
  attr {
    key: "_class"
    value {
      list {
        s: "loc:@lstm_1/bias"
      }
    }
  }
}
node {
  name: "lstm_1/strided_slice/stack"
  op: "Const"
  attr {
    key: "dtype"
    value {
      type: DT_INT32
    }
  }
  attr {
    key: "value"
    value {
      tensor {
        dtype: DT_INT32
        tensor_shape {
          dim {
            size: 2
          }
        }
        tensor_content: "\000\000\000\000\000\000\000\000"
      }
    }
  }
}
node {
  name: "lstm_1/strided_slice/stack_1"
  op: "Const"
  attr {
    key: "dtype"
    value {
      type: DT_INT32
    }
  }
  attr {
    key: "value"
    value {
      tensor {
        dtype: DT_INT32
        tensor_shape {
          dim {
            size: 2
          }
        }
        tensor_content: "\000\000\000\000 \000\000\000"
      }
    }
  }
}
node {
  name: "lstm_1/strided_slice/stack_2"
  op: "Const"
  attr {
    key: "dtype"
    value {
      type: DT_INT32
    }
  }
  attr {
    key: "value"
    value {
      tensor {
        dtype: DT_INT32
        tensor_shape {
          dim {
            size: 2
          }
        }
        tensor_content: "\001\000\000\000\001\000\000\000"
      }
    }
  }
}
node {
  name: "lstm_1/strided_slice"
  op: "StridedSlice"
  input: "lstm_1/kernel/read"
  input: "lstm_1/strided_slice/stack"
  input: "lstm_1/strided_slice/stack_1"
  input: "lstm_1/strided_slice/stack_2"
  attr {
    key: "Index"
    value {
      type: DT_INT32
    }
  }
  attr {
    key: "T"
    value {
      type: DT_FLOAT
    }
  }
  attr {
    key: "begin_mask"
    value {
      i: 3
    }
  }
  attr {
    key: "ellipsis_mask"
    value {
      i: 0
    }
  }
  attr {
    key: "end_mask"
    value {
      i: 1
    }
  }
  attr {
    key: "new_axis_mask"
    value {
      i: 0
    }
  }
  attr {
    key: "shrink_axis_mask"
    value {
      i: 0
    }
  }
}
node {
  name: "lstm_1/strided_slice_1/stack"
  op: "Const"
  attr {
    key: "dtype"
    value {
      type: DT_INT32
    }
  }
  attr {
    key: "value"
    value {
      tensor {
        dtype: DT_INT32
        tensor_shape {
          dim {
            size: 2
          }
        }
        tensor_content: "\000\000\000\000 \000\000\000"
      }
    }
  }
}
node {
  name: "lstm_1/strided_slice_1/stack_1"
  op: "Const"
  attr {
    key: "dtype"
    value {
      type: DT_INT32
    }
  }
  attr {
    key: "value"
    value {
      tensor {
        dtype: DT_INT32
        tensor_shape {
          dim {
            size: 2
          }
        }
        tensor_content: "\000\000\000\000@\000\000\000"
      }
    }
  }
}
node {
  name: "lstm_1/strided_slice_1/stack_2"
  op: "Const"
  attr {
    key: "dtype"
    value {
      type: DT_INT32
    }
  }
  attr {
    key: "value"
    value {
      tensor {
        dtype: DT_INT32
        tensor_shape {
          dim {
            size: 2
          }
        }
        tensor_content: "\001\000\000\000\001\000\000\000"
      }
    }
  }
}
node {
  name: "lstm_1/strided_slice_1"
  op: "StridedSlice"
  input: "lstm_1/kernel/read"
  input: "lstm_1/strided_slice_1/stack"
  input: "lstm_1/strided_slice_1/stack_1"
  input: "lstm_1/strided_slice_1/stack_2"
  attr {
    key: "Index"
    value {
      type: DT_INT32
    }
  }
  attr {
    key: "T"
    value {
      type: DT_FLOAT
    }
  }
  attr {
    key: "begin_mask"
    value {
      i: 1
    }
  }
  attr {
    key: "ellipsis_mask"
    value {
      i: 0
    }
  }
  attr {
    key: "end_mask"
    value {
      i: 1
    }
  }
  attr {
    key: "new_axis_mask"
    value {
      i: 0
    }
  }
  attr {
    key: "shrink_axis_mask"
    value {
      i: 0
    }
  }
}
node {
  name: "lstm_1/strided_slice_2/stack"
  op: "Const"
  attr {
    key: "dtype"
    value {
      type: DT_INT32
    }
  }
  attr {
    key: "value"
    value {
      tensor {
        dtype: DT_INT32
        tensor_shape {
          dim {
            size: 2
          }
        }
        tensor_content: "\000\000\000\000@\000\000\000"
      }
    }
  }
}
node {
  name: "lstm_1/strided_slice_2/stack_1"
  op: "Const"
  attr {
    key: "dtype"
    value {
      type: DT_INT32
    }
  }
  attr {
    key: "value"
    value {
      tensor {
        dtype: DT_INT32
        tensor_shape {
          dim {
            size: 2
          }
        }
        tensor_content: "\000\000\000\000`\000\000\000"
      }
    }
  }
}
node {
  name: "lstm_1/strided_slice_2/stack_2"
  op: "Const"
  attr {
    key: "dtype"
    value {
      type: DT_INT32
    }
  }
  attr {
    key: "value"
    value {
      tensor {
        dtype: DT_INT32
        tensor_shape {
          dim {
            size: 2
          }
        }
        tensor_content: "\001\000\000\000\001\000\000\000"
      }
    }
  }
}
node {
  name: "lstm_1/strided_slice_2"
  op: "StridedSlice"
  input: "lstm_1/kernel/read"
  input: "lstm_1/strided_slice_2/stack"
  input: "lstm_1/strided_slice_2/stack_1"
  input: "lstm_1/strided_slice_2/stack_2"
  attr {
    key: "Index"
    value {
      type: DT_INT32
    }
  }
  attr {
    key: "T"
    value {
      type: DT_FLOAT
    }
  }
  attr {
    key: "begin_mask"
    value {
      i: 1
    }
  }
  attr {
    key: "ellipsis_mask"
    value {
      i: 0
    }
  }
  attr {
    key: "end_mask"
    value {
      i: 1
    }
  }
  attr {
    key: "new_axis_mask"
    value {
      i: 0
    }
  }
  attr {
    key: "shrink_axis_mask"
    value {
      i: 0
    }
  }
}
node {
  name: "lstm_1/strided_slice_3/stack"
  op: "Const"
  attr {
    key: "dtype"
    value {
      type: DT_INT32
    }
  }
  attr {
    key: "value"
    value {
      tensor {
        dtype: DT_INT32
        tensor_shape {
          dim {
            size: 2
          }
        }
        tensor_content: "\000\000\000\000`\000\000\000"
      }
    }
  }
}
node {
  name: "lstm_1/strided_slice_3/stack_1"
  op: "Const"
  attr {
    key: "dtype"
    value {
      type: DT_INT32
    }
  }
  attr {
    key: "value"
    value {
      tensor {
        dtype: DT_INT32
        tensor_shape {
          dim {
            size: 2
          }
        }
        tensor_content: "\000\000\000\000\000\000\000\000"
      }
    }
  }
}
node {
  name: "lstm_1/strided_slice_3/stack_2"
  op: "Const"
  attr {
    key: "dtype"
    value {
      type: DT_INT32
    }
  }
  attr {
    key: "value"
    value {
      tensor {
        dtype: DT_INT32
        tensor_shape {
          dim {
            size: 2
          }
        }
        tensor_content: "\001\000\000\000\001\000\000\000"
      }
    }
  }
}
node {
  name: "lstm_1/strided_slice_3"
  op: "StridedSlice"
  input: "lstm_1/kernel/read"
  input: "lstm_1/strided_slice_3/stack"
  input: "lstm_1/strided_slice_3/stack_1"
  input: "lstm_1/strided_slice_3/stack_2"
  attr {
    key: "Index"
    value {
      type: DT_INT32
    }
  }
  attr {
    key: "T"
    value {
      type: DT_FLOAT
    }
  }
  attr {
    key: "begin_mask"
    value {
      i: 1
    }
  }
  attr {
    key: "ellipsis_mask"
    value {
      i: 0
    }
  }
  attr {
    key: "end_mask"
    value {
      i: 3
    }
  }
  attr {
    key: "new_axis_mask"
    value {
      i: 0
    }
  }
  attr {
    key: "shrink_axis_mask"
    value {
      i: 0
    }
  }
}
node {
  name: "lstm_1/strided_slice_4/stack"
  op: "Const"
  attr {
    key: "dtype"
    value {
      type: DT_INT32
    }
  }
  attr {
    key: "value"
    value {
      tensor {
        dtype: DT_INT32
        tensor_shape {
          dim {
            size: 2
          }
        }
        tensor_content: "\000\000\000\000\000\000\000\000"
      }
    }
  }
}
node {
  name: "lstm_1/strided_slice_4/stack_1"
  op: "Const"
  attr {
    key: "dtype"
    value {
      type: DT_INT32
    }
  }
  attr {
    key: "value"
    value {
      tensor {
        dtype: DT_INT32
        tensor_shape {
          dim {
            size: 2
          }
        }
        tensor_content: "\000\000\000\000 \000\000\000"
      }
    }
  }
}
node {
  name: "lstm_1/strided_slice_4/stack_2"
  op: "Const"
  attr {
    key: "dtype"
    value {
      type: DT_INT32
    }
  }
  attr {
    key: "value"
    value {
      tensor {
        dtype: DT_INT32
        tensor_shape {
          dim {
            size: 2
          }
        }
        tensor_content: "\001\000\000\000\001\000\000\000"
      }
    }
  }
}
node {
  name: "lstm_1/strided_slice_4"
  op: "StridedSlice"
  input: "lstm_1/recurrent_kernel/read"
  input: "lstm_1/strided_slice_4/stack"
  input: "lstm_1/strided_slice_4/stack_1"
  input: "lstm_1/strided_slice_4/stack_2"
  attr {
    key: "Index"
    value {
      type: DT_INT32
    }
  }
  attr {
    key: "T"
    value {
      type: DT_FLOAT
    }
  }
  attr {
    key: "begin_mask"
    value {
      i: 3
    }
  }
  attr {
    key: "ellipsis_mask"
    value {
      i: 0
    }
  }
  attr {
    key: "end_mask"
    value {
      i: 1
    }
  }
  attr {
    key: "new_axis_mask"
    value {
      i: 0
    }
  }
  attr {
    key: "shrink_axis_mask"
    value {
      i: 0
    }
  }
}
node {
  name: "lstm_1/strided_slice_5/stack"
  op: "Const"
  attr {
    key: "dtype"
    value {
      type: DT_INT32
    }
  }
  attr {
    key: "value"
    value {
      tensor {
        dtype: DT_INT32
        tensor_shape {
          dim {
            size: 2
          }
        }
        tensor_content: "\000\000\000\000 \000\000\000"
      }
    }
  }
}
node {
  name: "lstm_1/strided_slice_5/stack_1"
  op: "Const"
  attr {
    key: "dtype"
    value {
      type: DT_INT32
    }
  }
  attr {
    key: "value"
    value {
      tensor {
        dtype: DT_INT32
        tensor_shape {
          dim {
            size: 2
          }
        }
        tensor_content: "\000\000\000\000@\000\000\000"
      }
    }
  }
}
node {
  name: "lstm_1/strided_slice_5/stack_2"
  op: "Const"
  attr {
    key: "dtype"
    value {
      type: DT_INT32
    }
  }
  attr {
    key: "value"
    value {
      tensor {
        dtype: DT_INT32
        tensor_shape {
          dim {
            size: 2
          }
        }
        tensor_content: "\001\000\000\000\001\000\000\000"
      }
    }
  }
}
node {
  name: "lstm_1/strided_slice_5"
  op: "StridedSlice"
  input: "lstm_1/recurrent_kernel/read"
  input: "lstm_1/strided_slice_5/stack"
  input: "lstm_1/strided_slice_5/stack_1"
  input: "lstm_1/strided_slice_5/stack_2"
  attr {
    key: "Index"
    value {
      type: DT_INT32
    }
  }
  attr {
    key: "T"
    value {
      type: DT_FLOAT
    }
  }
  attr {
    key: "begin_mask"
    value {
      i: 1
    }
  }
  attr {
    key: "ellipsis_mask"
    value {
      i: 0
    }
  }
  attr {
    key: "end_mask"
    value {
      i: 1
    }
  }
  attr {
    key: "new_axis_mask"
    value {
      i: 0
    }
  }
  attr {
    key: "shrink_axis_mask"
    value {
      i: 0
    }
  }
}
node {
  name: "lstm_1/strided_slice_6/stack"
  op: "Const"
  attr {
    key: "dtype"
    value {
      type: DT_INT32
    }
  }
  attr {
    key: "value"
    value {
      tensor {
        dtype: DT_INT32
        tensor_shape {
          dim {
            size: 2
          }
        }
        tensor_content: "\000\000\000\000@\000\000\000"
      }
    }
  }
}
node {
  name: "lstm_1/strided_slice_6/stack_1"
  op: "Const"
  attr {
    key: "dtype"
    value {
      type: DT_INT32
    }
  }
  attr {
    key: "value"
    value {
      tensor {
        dtype: DT_INT32
        tensor_shape {
          dim {
            size: 2
          }
        }
        tensor_content: "\000\000\000\000`\000\000\000"
      }
    }
  }
}
node {
  name: "lstm_1/strided_slice_6/stack_2"
  op: "Const"
  attr {
    key: "dtype"
    value {
      type: DT_INT32
    }
  }
  attr {
    key: "value"
    value {
      tensor {
        dtype: DT_INT32
        tensor_shape {
          dim {
            size: 2
          }
        }
        tensor_content: "\001\000\000\000\001\000\000\000"
      }
    }
  }
}
node {
  name: "lstm_1/strided_slice_6"
  op: "StridedSlice"
  input: "lstm_1/recurrent_kernel/read"
  input: "lstm_1/strided_slice_6/stack"
  input: "lstm_1/strided_slice_6/stack_1"
  input: "lstm_1/strided_slice_6/stack_2"
  attr {
    key: "Index"
    value {
      type: DT_INT32
    }
  }
  attr {
    key: "T"
    value {
      type: DT_FLOAT
    }
  }
  attr {
    key: "begin_mask"
    value {
      i: 1
    }
  }
  attr {
    key: "ellipsis_mask"
    value {
      i: 0
    }
  }
  attr {
    key: "end_mask"
    value {
      i: 1
    }
  }
  attr {
    key: "new_axis_mask"
    value {
      i: 0
    }
  }
  attr {
    key: "shrink_axis_mask"
    value {
      i: 0
    }
  }
}
node {
  name: "lstm_1/strided_slice_7/stack"
  op: "Const"
  attr {
    key: "dtype"
    value {
      type: DT_INT32
    }
  }
  attr {
    key: "value"
    value {
      tensor {
        dtype: DT_INT32
        tensor_shape {
          dim {
            size: 2
          }
        }
        tensor_content: "\000\000\000\000`\000\000\000"
      }
    }
  }
}
node {
  name: "lstm_1/strided_slice_7/stack_1"
  op: "Const"
  attr {
    key: "dtype"
    value {
      type: DT_INT32
    }
  }
  attr {
    key: "value"
    value {
      tensor {
        dtype: DT_INT32
        tensor_shape {
          dim {
            size: 2
          }
        }
        tensor_content: "\000\000\000\000\000\000\000\000"
      }
    }
  }
}
node {
  name: "lstm_1/strided_slice_7/stack_2"
  op: "Const"
  attr {
    key: "dtype"
    value {
      type: DT_INT32
    }
  }
  attr {
    key: "value"
    value {
      tensor {
        dtype: DT_INT32
        tensor_shape {
          dim {
            size: 2
          }
        }
        tensor_content: "\001\000\000\000\001\000\000\000"
      }
    }
  }
}
node {
  name: "lstm_1/strided_slice_7"
  op: "StridedSlice"
  input: "lstm_1/recurrent_kernel/read"
  input: "lstm_1/strided_slice_7/stack"
  input: "lstm_1/strided_slice_7/stack_1"
  input: "lstm_1/strided_slice_7/stack_2"
  attr {
    key: "Index"
    value {
      type: DT_INT32
    }
  }
  attr {
    key: "T"
    value {
      type: DT_FLOAT
    }
  }
  attr {
    key: "begin_mask"
    value {
      i: 1
    }
  }
  attr {
    key: "ellipsis_mask"
    value {
      i: 0
    }
  }
  attr {
    key: "end_mask"
    value {
      i: 3
    }
  }
  attr {
    key: "new_axis_mask"
    value {
      i: 0
    }
  }
  attr {
    key: "shrink_axis_mask"
    value {
      i: 0
    }
  }
}
node {
  name: "lstm_1/strided_slice_8/stack"
  op: "Const"
  attr {
    key: "dtype"
    value {
      type: DT_INT32
    }
  }
  attr {
    key: "value"
    value {
      tensor {
        dtype: DT_INT32
        tensor_shape {
          dim {
            size: 1
          }
        }
        int_val: 0
      }
    }
  }
}
node {
  name: "lstm_1/strided_slice_8/stack_1"
  op: "Const"
  attr {
    key: "dtype"
    value {
      type: DT_INT32
    }
  }
  attr {
    key: "value"
    value {
      tensor {
        dtype: DT_INT32
        tensor_shape {
          dim {
            size: 1
          }
        }
        int_val: 32
      }
    }
  }
}
node {
  name: "lstm_1/strided_slice_8/stack_2"
  op: "Const"
  attr {
    key: "dtype"
    value {
      type: DT_INT32
    }
  }
  attr {
    key: "value"
    value {
      tensor {
        dtype: DT_INT32
        tensor_shape {
          dim {
            size: 1
          }
        }
        int_val: 1
      }
    }
  }
}
node {
  name: "lstm_1/strided_slice_8"
  op: "StridedSlice"
  input: "lstm_1/bias/read"
  input: "lstm_1/strided_slice_8/stack"
  input: "lstm_1/strided_slice_8/stack_1"
  input: "lstm_1/strided_slice_8/stack_2"
  attr {
    key: "Index"
    value {
      type: DT_INT32
    }
  }
  attr {
    key: "T"
    value {
      type: DT_FLOAT
    }
  }
  attr {
    key: "begin_mask"
    value {
      i: 1
    }
  }
  attr {
    key: "ellipsis_mask"
    value {
      i: 0
    }
  }
  attr {
    key: "end_mask"
    value {
      i: 0
    }
  }
  attr {
    key: "new_axis_mask"
    value {
      i: 0
    }
  }
  attr {
    key: "shrink_axis_mask"
    value {
      i: 0
    }
  }
}
node {
  name: "lstm_1/strided_slice_9/stack"
  op: "Const"
  attr {
    key: "dtype"
    value {
      type: DT_INT32
    }
  }
  attr {
    key: "value"
    value {
      tensor {
        dtype: DT_INT32
        tensor_shape {
          dim {
            size: 1
          }
        }
        int_val: 32
      }
    }
  }
}
node {
  name: "lstm_1/strided_slice_9/stack_1"
  op: "Const"
  attr {
    key: "dtype"
    value {
      type: DT_INT32
    }
  }
  attr {
    key: "value"
    value {
      tensor {
        dtype: DT_INT32
        tensor_shape {
          dim {
            size: 1
          }
        }
        int_val: 64
      }
    }
  }
}
node {
  name: "lstm_1/strided_slice_9/stack_2"
  op: "Const"
  attr {
    key: "dtype"
    value {
      type: DT_INT32
    }
  }
  attr {
    key: "value"
    value {
      tensor {
        dtype: DT_INT32
        tensor_shape {
          dim {
            size: 1
          }
        }
        int_val: 1
      }
    }
  }
}
node {
  name: "lstm_1/strided_slice_9"
  op: "StridedSlice"
  input: "lstm_1/bias/read"
  input: "lstm_1/strided_slice_9/stack"
  input: "lstm_1/strided_slice_9/stack_1"
  input: "lstm_1/strided_slice_9/stack_2"
  attr {
    key: "Index"
    value {
      type: DT_INT32
    }
  }
  attr {
    key: "T"
    value {
      type: DT_FLOAT
    }
  }
  attr {
    key: "begin_mask"
    value {
      i: 0
    }
  }
  attr {
    key: "ellipsis_mask"
    value {
      i: 0
    }
  }
  attr {
    key: "end_mask"
    value {
      i: 0
    }
  }
  attr {
    key: "new_axis_mask"
    value {
      i: 0
    }
  }
  attr {
    key: "shrink_axis_mask"
    value {
      i: 0
    }
  }
}
node {
  name: "lstm_1/strided_slice_10/stack"
  op: "Const"
  attr {
    key: "dtype"
    value {
      type: DT_INT32
    }
  }
  attr {
    key: "value"
    value {
      tensor {
        dtype: DT_INT32
        tensor_shape {
          dim {
            size: 1
          }
        }
        int_val: 64
      }
    }
  }
}
node {
  name: "lstm_1/strided_slice_10/stack_1"
  op: "Const"
  attr {
    key: "dtype"
    value {
      type: DT_INT32
    }
  }
  attr {
    key: "value"
    value {
      tensor {
        dtype: DT_INT32
        tensor_shape {
          dim {
            size: 1
          }
        }
        int_val: 96
      }
    }
  }
}
node {
  name: "lstm_1/strided_slice_10/stack_2"
  op: "Const"
  attr {
    key: "dtype"
    value {
      type: DT_INT32
    }
  }
  attr {
    key: "value"
    value {
      tensor {
        dtype: DT_INT32
        tensor_shape {
          dim {
            size: 1
          }
        }
        int_val: 1
      }
    }
  }
}
node {
  name: "lstm_1/strided_slice_10"
  op: "StridedSlice"
  input: "lstm_1/bias/read"
  input: "lstm_1/strided_slice_10/stack"
  input: "lstm_1/strided_slice_10/stack_1"
  input: "lstm_1/strided_slice_10/stack_2"
  attr {
    key: "Index"
    value {
      type: DT_INT32
    }
  }
  attr {
    key: "T"
    value {
      type: DT_FLOAT
    }
  }
  attr {
    key: "begin_mask"
    value {
      i: 0
    }
  }
  attr {
    key: "ellipsis_mask"
    value {
      i: 0
    }
  }
  attr {
    key: "end_mask"
    value {
      i: 0
    }
  }
  attr {
    key: "new_axis_mask"
    value {
      i: 0
    }
  }
  attr {
    key: "shrink_axis_mask"
    value {
      i: 0
    }
  }
}
node {
  name: "lstm_1/strided_slice_11/stack"
  op: "Const"
  attr {
    key: "dtype"
    value {
      type: DT_INT32
    }
  }
  attr {
    key: "value"
    value {
      tensor {
        dtype: DT_INT32
        tensor_shape {
          dim {
            size: 1
          }
        }
        int_val: 96
      }
    }
  }
}
node {
  name: "lstm_1/strided_slice_11/stack_1"
  op: "Const"
  attr {
    key: "dtype"
    value {
      type: DT_INT32
    }
  }
  attr {
    key: "value"
    value {
      tensor {
        dtype: DT_INT32
        tensor_shape {
          dim {
            size: 1
          }
        }
        int_val: 0
      }
    }
  }
}
node {
  name: "lstm_1/strided_slice_11/stack_2"
  op: "Const"
  attr {
    key: "dtype"
    value {
      type: DT_INT32
    }
  }
  attr {
    key: "value"
    value {
      tensor {
        dtype: DT_INT32
        tensor_shape {
          dim {
            size: 1
          }
        }
        int_val: 1
      }
    }
  }
}
node {
  name: "lstm_1/strided_slice_11"
  op: "StridedSlice"
  input: "lstm_1/bias/read"
  input: "lstm_1/strided_slice_11/stack"
  input: "lstm_1/strided_slice_11/stack_1"
  input: "lstm_1/strided_slice_11/stack_2"
  attr {
    key: "Index"
    value {
      type: DT_INT32
    }
  }
  attr {
    key: "T"
    value {
      type: DT_FLOAT
    }
  }
  attr {
    key: "begin_mask"
    value {
      i: 0
    }
  }
  attr {
    key: "ellipsis_mask"
    value {
      i: 0
    }
  }
  attr {
    key: "end_mask"
    value {
      i: 1
    }
  }
  attr {
    key: "new_axis_mask"
    value {
      i: 0
    }
  }
  attr {
    key: "shrink_axis_mask"
    value {
      i: 0
    }
  }
}
node {
  name: "lstm_1/zeros_like"
  op: "ZerosLike"
  input: "lstm_1_input"
  attr {
    key: "T"
    value {
      type: DT_FLOAT
    }
  }
}
node {
  name: "lstm_1/Sum/reduction_indices"
  op: "Const"
  attr {
    key: "dtype"
    value {
      type: DT_INT32
    }
  }
  attr {
    key: "value"
    value {
      tensor {
        dtype: DT_INT32
        tensor_shape {
          dim {
            size: 2
          }
        }
        tensor_content: "\001\000\000\000\002\000\000\000"
      }
    }
  }
}
node {
  name: "lstm_1/Sum"
  op: "Sum"
  input: "lstm_1/zeros_like"
  input: "lstm_1/Sum/reduction_indices"
  attr {
    key: "T"
    value {
      type: DT_FLOAT
    }
  }
  attr {
    key: "Tidx"
    value {
      type: DT_INT32
    }
  }
  attr {
    key: "keep_dims"
    value {
      b: false
    }
  }
}
node {
  name: "lstm_1/ExpandDims/dim"
  op: "Const"
  attr {
    key: "dtype"
    value {
      type: DT_INT32
    }
  }
  attr {
    key: "value"
    value {
      tensor {
        dtype: DT_INT32
        tensor_shape {
        }
        int_val: -1
      }
    }
  }
}
node {
  name: "lstm_1/ExpandDims"
  op: "ExpandDims"
  input: "lstm_1/Sum"
  input: "lstm_1/ExpandDims/dim"
  attr {
    key: "T"
    value {
      type: DT_FLOAT
    }
  }
  attr {
    key: "Tdim"
    value {
      type: DT_INT32
    }
  }
}
node {
  name: "lstm_1/Tile/multiples"
  op: "Const"
  attr {
    key: "dtype"
    value {
      type: DT_INT32
    }
  }
  attr {
    key: "value"
    value {
      tensor {
        dtype: DT_INT32
        tensor_shape {
          dim {
            size: 2
          }
        }
        tensor_content: "\001\000\000\000 \000\000\000"
      }
    }
  }
}
node {
  name: "lstm_1/Tile"
  op: "Tile"
  input: "lstm_1/ExpandDims"
  input: "lstm_1/Tile/multiples"
  attr {
    key: "T"
    value {
      type: DT_FLOAT
    }
  }
  attr {
    key: "Tmultiples"
    value {
      type: DT_INT32
    }
  }
}
node {
  name: "lstm_1/Tile_1/multiples"
  op: "Const"
  attr {
    key: "dtype"
    value {
      type: DT_INT32
    }
  }
  attr {
    key: "value"
    value {
      tensor {
        dtype: DT_INT32
        tensor_shape {
          dim {
            size: 2
          }
        }
        tensor_content: "\001\000\000\000 \000\000\000"
      }
    }
  }
}
node {
  name: "lstm_1/Tile_1"
  op: "Tile"
  input: "lstm_1/ExpandDims"
  input: "lstm_1/Tile_1/multiples"
  attr {
    key: "T"
    value {
      type: DT_FLOAT
    }
  }
  attr {
    key: "Tmultiples"
    value {
      type: DT_INT32
    }
  }
}
node {
  name: "lstm_1/transpose/perm"
  op: "Const"
  attr {
    key: "dtype"
    value {
      type: DT_INT32
    }
  }
  attr {
    key: "value"
    value {
      tensor {
        dtype: DT_INT32
        tensor_shape {
          dim {
            size: 3
          }
        }
        tensor_content: "\001\000\000\000\000\000\000\000\002\000\000\000"
      }
    }
  }
}
node {
  name: "lstm_1/transpose"
  op: "Transpose"
  input: "lstm_1_input"
  input: "lstm_1/transpose/perm"
  attr {
    key: "T"
    value {
      type: DT_FLOAT
    }
  }
  attr {
    key: "Tperm"
    value {
      type: DT_INT32
    }
  }
}
node {
  name: "lstm_1/Shape"
  op: "Shape"
  input: "lstm_1/transpose"
  attr {
    key: "T"
    value {
      type: DT_FLOAT
    }
  }
  attr {
    key: "out_type"
    value {
      type: DT_INT32
    }
  }
}
node {
  name: "lstm_1/strided_slice_12/stack"
  op: "Const"
  attr {
    key: "dtype"
    value {
      type: DT_INT32
    }
  }
  attr {
    key: "value"
    value {
      tensor {
        dtype: DT_INT32
        tensor_shape {
          dim {
            size: 1
          }
        }
        int_val: 0
      }
    }
  }
}
node {
  name: "lstm_1/strided_slice_12/stack_1"
  op: "Const"
  attr {
    key: "dtype"
    value {
      type: DT_INT32
    }
  }
  attr {
    key: "value"
    value {
      tensor {
        dtype: DT_INT32
        tensor_shape {
          dim {
            size: 1
          }
        }
        int_val: 1
      }
    }
  }
}
node {
  name: "lstm_1/strided_slice_12/stack_2"
  op: "Const"
  attr {
    key: "dtype"
    value {
      type: DT_INT32
    }
  }
  attr {
    key: "value"
    value {
      tensor {
        dtype: DT_INT32
        tensor_shape {
          dim {
            size: 1
          }
        }
        int_val: 1
      }
    }
  }
}
node {
  name: "lstm_1/strided_slice_12"
  op: "StridedSlice"
  input: "lstm_1/Shape"
  input: "lstm_1/strided_slice_12/stack"
  input: "lstm_1/strided_slice_12/stack_1"
  input: "lstm_1/strided_slice_12/stack_2"
  attr {
    key: "Index"
    value {
      type: DT_INT32
    }
  }
  attr {
    key: "T"
    value {
      type: DT_INT32
    }
  }
  attr {
    key: "begin_mask"
    value {
      i: 0
    }
  }
  attr {
    key: "ellipsis_mask"
    value {
      i: 0
    }
  }
  attr {
    key: "end_mask"
    value {
      i: 0
    }
  }
  attr {
    key: "new_axis_mask"
    value {
      i: 0
    }
  }
  attr {
    key: "shrink_axis_mask"
    value {
      i: 1
    }
  }
}
node {
  name: "lstm_1/strided_slice_13/stack"
  op: "Const"
  attr {
    key: "dtype"
    value {
      type: DT_INT32
    }
  }
  attr {
    key: "value"
    value {
      tensor {
        dtype: DT_INT32
        tensor_shape {
          dim {
            size: 1
          }
        }
        int_val: 0
      }
    }
  }
}
node {
  name: "lstm_1/strided_slice_13/stack_1"
  op: "Const"
  attr {
    key: "dtype"
    value {
      type: DT_INT32
    }
  }
  attr {
    key: "value"
    value {
      tensor {
        dtype: DT_INT32
        tensor_shape {
          dim {
            size: 1
          }
        }
        int_val: 1
      }
    }
  }
}
node {
  name: "lstm_1/strided_slice_13/stack_2"
  op: "Const"
  attr {
    key: "dtype"
    value {
      type: DT_INT32
    }
  }
  attr {
    key: "value"
    value {
      tensor {
        dtype: DT_INT32
        tensor_shape {
          dim {
            size: 1
          }
        }
        int_val: 1
      }
    }
  }
}
node {
  name: "lstm_1/strided_slice_13"
  op: "StridedSlice"
  input: "lstm_1/transpose"
  input: "lstm_1/strided_slice_13/stack"
  input: "lstm_1/strided_slice_13/stack_1"
  input: "lstm_1/strided_slice_13/stack_2"
  attr {
    key: "Index"
    value {
      type: DT_INT32
    }
  }
  attr {
    key: "T"
    value {
      type: DT_FLOAT
    }
  }
  attr {
    key: "begin_mask"
    value {
      i: 0
    }
  }
  attr {
    key: "ellipsis_mask"
    value {
      i: 0
    }
  }
  attr {
    key: "end_mask"
    value {
      i: 0
    }
  }
  attr {
    key: "new_axis_mask"
    value {
      i: 0
    }
  }
  attr {
    key: "shrink_axis_mask"
    value {
      i: 1
    }
  }
}
node {
  name: "lstm_1/MatMul"
  op: "MatMul"
  input: "lstm_1/strided_slice_13"
  input: "lstm_1/strided_slice"
  attr {
    key: "T"
    value {
      type: DT_FLOAT
    }
  }
  attr {
    key: "transpose_a"
    value {
      b: false
    }
  }
  attr {
    key: "transpose_b"
    value {
      b: false
    }
  }
}
node {
  name: "lstm_1/MatMul_1"
  op: "MatMul"
  input: "lstm_1/strided_slice_13"
  input: "lstm_1/strided_slice_1"
  attr {
    key: "T"
    value {
      type: DT_FLOAT
    }
  }
  attr {
    key: "transpose_a"
    value {
      b: false
    }
  }
  attr {
    key: "transpose_b"
    value {
      b: false
    }
  }
}
node {
  name: "lstm_1/MatMul_2"
  op: "MatMul"
  input: "lstm_1/strided_slice_13"
  input: "lstm_1/strided_slice_2"
  attr {
    key: "T"
    value {
      type: DT_FLOAT
    }
  }
  attr {
    key: "transpose_a"
    value {
      b: false
    }
  }
  attr {
    key: "transpose_b"
    value {
      b: false
    }
  }
}
node {
  name: "lstm_1/MatMul_3"
  op: "MatMul"
  input: "lstm_1/strided_slice_13"
  input: "lstm_1/strided_slice_3"
  attr {
    key: "T"
    value {
      type: DT_FLOAT
    }
  }
  attr {
    key: "transpose_a"
    value {
      b: false
    }
  }
  attr {
    key: "transpose_b"
    value {
      b: false
    }
  }
}
node {
  name: "lstm_1/BiasAdd"
  op: "BiasAdd"
  input: "lstm_1/MatMul"
  input: "lstm_1/strided_slice_8"
  attr {
    key: "T"
    value {
      type: DT_FLOAT
    }
  }
  attr {
    key: "data_format"
    value {
      s: "NHWC"
    }
  }
}
node {
  name: "lstm_1/BiasAdd_1"
  op: "BiasAdd"
  input: "lstm_1/MatMul_1"
  input: "lstm_1/strided_slice_9"
  attr {
    key: "T"
    value {
      type: DT_FLOAT
    }
  }
  attr {
    key: "data_format"
    value {
      s: "NHWC"
    }
  }
}
node {
  name: "lstm_1/BiasAdd_2"
  op: "BiasAdd"
  input: "lstm_1/MatMul_2"
  input: "lstm_1/strided_slice_10"
  attr {
    key: "T"
    value {
      type: DT_FLOAT
    }
  }
  attr {
    key: "data_format"
    value {
      s: "NHWC"
    }
  }
}
node {
  name: "lstm_1/BiasAdd_3"
  op: "BiasAdd"
  input: "lstm_1/MatMul_3"
  input: "lstm_1/strided_slice_11"
  attr {
    key: "T"
    value {
      type: DT_FLOAT
    }
  }
  attr {
    key: "data_format"
    value {
      s: "NHWC"
    }
  }
}
node {
  name: "lstm_1/MatMul_4"
  op: "MatMul"
  input: "lstm_1/Tile"
  input: "lstm_1/strided_slice_4"
  attr {
    key: "T"
    value {
      type: DT_FLOAT
    }
  }
  attr {
    key: "transpose_a"
    value {
      b: false
    }
  }
  attr {
    key: "transpose_b"
    value {
      b: false
    }
  }
}
node {
  name: "lstm_1/add"
  op: "Add"
  input: "lstm_1/BiasAdd"
  input: "lstm_1/MatMul_4"
  attr {
    key: "T"
    value {
      type: DT_FLOAT
    }
  }
}
node {
  name: "lstm_1/mul/x"
  op: "Const"
  attr {
    key: "dtype"
    value {
      type: DT_FLOAT
    }
  }
  attr {
    key: "value"
    value {
      tensor {
        dtype: DT_FLOAT
        tensor_shape {
        }
        float_val: 0.20000000298023224
      }
    }
  }
}
node {
  name: "lstm_1/mul"
  op: "Mul"
  input: "lstm_1/mul/x"
  input: "lstm_1/add"
  attr {
    key: "T"
    value {
      type: DT_FLOAT
    }
  }
}
node {
  name: "lstm_1/add_1/y"
  op: "Const"
  attr {
    key: "dtype"
    value {
      type: DT_FLOAT
    }
  }
  attr {
    key: "value"
    value {
      tensor {
        dtype: DT_FLOAT
        tensor_shape {
        }
        float_val: 0.5
      }
    }
  }
}
node {
  name: "lstm_1/add_1"
  op: "Add"
  input: "lstm_1/mul"
  input: "lstm_1/add_1/y"
  attr {
    key: "T"
    value {
      type: DT_FLOAT
    }
  }
}
node {
  name: "lstm_1/Const_3"
  op: "Const"
  attr {
    key: "dtype"
    value {
      type: DT_FLOAT
    }
  }
  attr {
    key: "value"
    value {
      tensor {
        dtype: DT_FLOAT
        tensor_shape {
        }
        float_val: 0.0
      }
    }
  }
}
node {
  name: "lstm_1/Const_4"
  op: "Const"
  attr {
    key: "dtype"
    value {
      type: DT_FLOAT
    }
  }
  attr {
    key: "value"
    value {
      tensor {
        dtype: DT_FLOAT
        tensor_shape {
        }
        float_val: 1.0
      }
    }
  }
}
node {
  name: "lstm_1/clip_by_value/Minimum"
  op: "Minimum"
  input: "lstm_1/add_1"
  input: "lstm_1/Const_4"
  attr {
    key: "T"
    value {
      type: DT_FLOAT
    }
  }
}
node {
  name: "lstm_1/clip_by_value"
  op: "Maximum"
  input: "lstm_1/clip_by_value/Minimum"
  input: "lstm_1/Const_3"
  attr {
    key: "T"
    value {
      type: DT_FLOAT
    }
  }
}
node {
  name: "lstm_1/MatMul_5"
  op: "MatMul"
  input: "lstm_1/Tile"
  input: "lstm_1/strided_slice_5"
  attr {
    key: "T"
    value {
      type: DT_FLOAT
    }
  }
  attr {
    key: "transpose_a"
    value {
      b: false
    }
  }
  attr {
    key: "transpose_b"
    value {
      b: false
    }
  }
}
node {
  name: "lstm_1/add_2"
  op: "Add"
  input: "lstm_1/BiasAdd_1"
  input: "lstm_1/MatMul_5"
  attr {
    key: "T"
    value {
      type: DT_FLOAT
    }
  }
}
node {
  name: "lstm_1/mul_1/x"
  op: "Const"
  attr {
    key: "dtype"
    value {
      type: DT_FLOAT
    }
  }
  attr {
    key: "value"
    value {
      tensor {
        dtype: DT_FLOAT
        tensor_shape {
        }
        float_val: 0.20000000298023224
      }
    }
  }
}
node {
  name: "lstm_1/mul_1"
  op: "Mul"
  input: "lstm_1/mul_1/x"
  input: "lstm_1/add_2"
  attr {
    key: "T"
    value {
      type: DT_FLOAT
    }
  }
}
node {
  name: "lstm_1/add_3/y"
  op: "Const"
  attr {
    key: "dtype"
    value {
      type: DT_FLOAT
    }
  }
  attr {
    key: "value"
    value {
      tensor {
        dtype: DT_FLOAT
        tensor_shape {
        }
        float_val: 0.5
      }
    }
  }
}
node {
  name: "lstm_1/add_3"
  op: "Add"
  input: "lstm_1/mul_1"
  input: "lstm_1/add_3/y"
  attr {
    key: "T"
    value {
      type: DT_FLOAT
    }
  }
}
node {
  name: "lstm_1/Const_5"
  op: "Const"
  attr {
    key: "dtype"
    value {
      type: DT_FLOAT
    }
  }
  attr {
    key: "value"
    value {
      tensor {
        dtype: DT_FLOAT
        tensor_shape {
        }
        float_val: 0.0
      }
    }
  }
}
node {
  name: "lstm_1/Const_6"
  op: "Const"
  attr {
    key: "dtype"
    value {
      type: DT_FLOAT
    }
  }
  attr {
    key: "value"
    value {
      tensor {
        dtype: DT_FLOAT
        tensor_shape {
        }
        float_val: 1.0
      }
    }
  }
}
node {
  name: "lstm_1/clip_by_value_1/Minimum"
  op: "Minimum"
  input: "lstm_1/add_3"
  input: "lstm_1/Const_6"
  attr {
    key: "T"
    value {
      type: DT_FLOAT
    }
  }
}
node {
  name: "lstm_1/clip_by_value_1"
  op: "Maximum"
  input: "lstm_1/clip_by_value_1/Minimum"
  input: "lstm_1/Const_5"
  attr {
    key: "T"
    value {
      type: DT_FLOAT
    }
  }
}
node {
  name: "lstm_1/mul_2"
  op: "Mul"
  input: "lstm_1/clip_by_value_1"
  input: "lstm_1/Tile_1"
  attr {
    key: "T"
    value {
      type: DT_FLOAT
    }
  }
}
node {
  name: "lstm_1/MatMul_6"
  op: "MatMul"
  input: "lstm_1/Tile"
  input: "lstm_1/strided_slice_6"
  attr {
    key: "T"
    value {
      type: DT_FLOAT
    }
  }
  attr {
    key: "transpose_a"
    value {
      b: false
    }
  }
  attr {
    key: "transpose_b"
    value {
      b: false
    }
  }
}
node {
  name: "lstm_1/add_4"
  op: "Add"
  input: "lstm_1/BiasAdd_2"
  input: "lstm_1/MatMul_6"
  attr {
    key: "T"
    value {
      type: DT_FLOAT
    }
  }
}
node {
  name: "lstm_1/Tanh"
  op: "Tanh"
  input: "lstm_1/add_4"
  attr {
    key: "T"
    value {
      type: DT_FLOAT
    }
  }
}
node {
  name: "lstm_1/mul_3"
  op: "Mul"
  input: "lstm_1/clip_by_value"
  input: "lstm_1/Tanh"
  attr {
    key: "T"
    value {
      type: DT_FLOAT
    }
  }
}
node {
  name: "lstm_1/add_5"
  op: "Add"
  input: "lstm_1/mul_2"
  input: "lstm_1/mul_3"
  attr {
    key: "T"
    value {
      type: DT_FLOAT
    }
  }
}
node {
  name: "lstm_1/MatMul_7"
  op: "MatMul"
  input: "lstm_1/Tile"
  input: "lstm_1/strided_slice_7"
  attr {
    key: "T"
    value {
      type: DT_FLOAT
    }
  }
  attr {
    key: "transpose_a"
    value {
      b: false
    }
  }
  attr {
    key: "transpose_b"
    value {
      b: false
    }
  }
}
node {
  name: "lstm_1/add_6"
  op: "Add"
  input: "lstm_1/BiasAdd_3"
  input: "lstm_1/MatMul_7"
  attr {
    key: "T"
    value {
      type: DT_FLOAT
    }
  }
}
node {
  name: "lstm_1/mul_4/x"
  op: "Const"
  attr {
    key: "dtype"
    value {
      type: DT_FLOAT
    }
  }
  attr {
    key: "value"
    value {
      tensor {
        dtype: DT_FLOAT
        tensor_shape {
        }
        float_val: 0.20000000298023224
      }
    }
  }
}
node {
  name: "lstm_1/mul_4"
  op: "Mul"
  input: "lstm_1/mul_4/x"
  input: "lstm_1/add_6"
  attr {
    key: "T"
    value {
      type: DT_FLOAT
    }
  }
}
node {
  name: "lstm_1/add_7/y"
  op: "Const"
  attr {
    key: "dtype"
    value {
      type: DT_FLOAT
    }
  }
  attr {
    key: "value"
    value {
      tensor {
        dtype: DT_FLOAT
        tensor_shape {
        }
        float_val: 0.5
      }
    }
  }
}
node {
  name: "lstm_1/add_7"
  op: "Add"
  input: "lstm_1/mul_4"
  input: "lstm_1/add_7/y"
  attr {
    key: "T"
    value {
      type: DT_FLOAT
    }
  }
}
node {
  name: "lstm_1/Const_7"
  op: "Const"
  attr {
    key: "dtype"
    value {
      type: DT_FLOAT
    }
  }
  attr {
    key: "value"
    value {
      tensor {
        dtype: DT_FLOAT
        tensor_shape {
        }
        float_val: 0.0
      }
    }
  }
}
node {
  name: "lstm_1/Const_8"
  op: "Const"
  attr {
    key: "dtype"
    value {
      type: DT_FLOAT
    }
  }
  attr {
    key: "value"
    value {
      tensor {
        dtype: DT_FLOAT
        tensor_shape {
        }
        float_val: 1.0
      }
    }
  }
}
node {
  name: "lstm_1/clip_by_value_2/Minimum"
  op: "Minimum"
  input: "lstm_1/add_7"
  input: "lstm_1/Const_8"
  attr {
    key: "T"
    value {
      type: DT_FLOAT
    }
  }
}
node {
  name: "lstm_1/clip_by_value_2"
  op: "Maximum"
  input: "lstm_1/clip_by_value_2/Minimum"
  input: "lstm_1/Const_7"
  attr {
    key: "T"
    value {
      type: DT_FLOAT
    }
  }
}
node {
  name: "lstm_1/Tanh_1"
  op: "Tanh"
  input: "lstm_1/add_5"
  attr {
    key: "T"
    value {
      type: DT_FLOAT
    }
  }
}
node {
  name: "lstm_1/mul_5"
  op: "Mul"
  input: "lstm_1/clip_by_value_2"
  input: "lstm_1/Tanh_1"
  attr {
    key: "T"
    value {
      type: DT_FLOAT
    }
  }
}
node {
  name: "lstm_1/TensorArray"
  op: "TensorArrayV3"
  input: "lstm_1/strided_slice_12"
  attr {
    key: "clear_after_read"
    value {
      b: true
    }
  }
  attr {
    key: "dtype"
    value {
      type: DT_FLOAT
    }
  }
  attr {
    key: "dynamic_size"
    value {
      b: false
    }
  }
  attr {
    key: "element_shape"
    value {
      shape {
        unknown_rank: true
      }
    }
  }
  attr {
    key: "identical_element_shapes"
    value {
      b: true
    }
  }
  attr {
    key: "tensor_array_name"
    value {
      s: "output_ta"
    }
  }
}
node {
  name: "lstm_1/TensorArray_1"
  op: "TensorArrayV3"
  input: "lstm_1/strided_slice_12"
  attr {
    key: "clear_after_read"
    value {
      b: true
    }
  }
  attr {
    key: "dtype"
    value {
      type: DT_FLOAT
    }
  }
  attr {
    key: "dynamic_size"
    value {
      b: false
    }
  }
  attr {
    key: "element_shape"
    value {
      shape {
        unknown_rank: true
      }
    }
  }
  attr {
    key: "identical_element_shapes"
    value {
      b: true
    }
  }
  attr {
    key: "tensor_array_name"
    value {
      s: "input_ta"
    }
  }
}
node {
  name: "lstm_1/TensorArrayUnstack/Shape"
  op: "Shape"
  input: "lstm_1/transpose"
  attr {
    key: "T"
    value {
      type: DT_FLOAT
    }
  }
  attr {
    key: "out_type"
    value {
      type: DT_INT32
    }
  }
}
node {
  name: "lstm_1/TensorArrayUnstack/strided_slice/stack"
  op: "Const"
  attr {
    key: "dtype"
    value {
      type: DT_INT32
    }
  }
  attr {
    key: "value"
    value {
      tensor {
        dtype: DT_INT32
        tensor_shape {
          dim {
            size: 1
          }
        }
        int_val: 0
      }
    }
  }
}
node {
  name: "lstm_1/TensorArrayUnstack/strided_slice/stack_1"
  op: "Const"
  attr {
    key: "dtype"
    value {
      type: DT_INT32
    }
  }
  attr {
    key: "value"
    value {
      tensor {
        dtype: DT_INT32
        tensor_shape {
          dim {
            size: 1
          }
        }
        int_val: 1
      }
    }
  }
}
node {
  name: "lstm_1/TensorArrayUnstack/strided_slice/stack_2"
  op: "Const"
  attr {
    key: "dtype"
    value {
      type: DT_INT32
    }
  }
  attr {
    key: "value"
    value {
      tensor {
        dtype: DT_INT32
        tensor_shape {
          dim {
            size: 1
          }
        }
        int_val: 1
      }
    }
  }
}
node {
  name: "lstm_1/TensorArrayUnstack/strided_slice"
  op: "StridedSlice"
  input: "lstm_1/TensorArrayUnstack/Shape"
  input: "lstm_1/TensorArrayUnstack/strided_slice/stack"
  input: "lstm_1/TensorArrayUnstack/strided_slice/stack_1"
  input: "lstm_1/TensorArrayUnstack/strided_slice/stack_2"
  attr {
    key: "Index"
    value {
      type: DT_INT32
    }
  }
  attr {
    key: "T"
    value {
      type: DT_INT32
    }
  }
  attr {
    key: "begin_mask"
    value {
      i: 0
    }
  }
  attr {
    key: "ellipsis_mask"
    value {
      i: 0
    }
  }
  attr {
    key: "end_mask"
    value {
      i: 0
    }
  }
  attr {
    key: "new_axis_mask"
    value {
      i: 0
    }
  }
  attr {
    key: "shrink_axis_mask"
    value {
      i: 1
    }
  }
}
node {
  name: "lstm_1/TensorArrayUnstack/range/start"
  op: "Const"
  attr {
    key: "dtype"
    value {
      type: DT_INT32
    }
  }
  attr {
    key: "value"
    value {
      tensor {
        dtype: DT_INT32
        tensor_shape {
        }
        int_val: 0
      }
    }
  }
}
node {
  name: "lstm_1/TensorArrayUnstack/range/delta"
  op: "Const"
  attr {
    key: "dtype"
    value {
      type: DT_INT32
    }
  }
  attr {
    key: "value"
    value {
      tensor {
        dtype: DT_INT32
        tensor_shape {
        }
        int_val: 1
      }
    }
  }
}
node {
  name: "lstm_1/TensorArrayUnstack/range"
  op: "Range"
  input: "lstm_1/TensorArrayUnstack/range/start"
  input: "lstm_1/TensorArrayUnstack/strided_slice"
  input: "lstm_1/TensorArrayUnstack/range/delta"
  attr {
    key: "Tidx"
    value {
      type: DT_INT32
    }
  }
}
node {
  name: "lstm_1/TensorArrayUnstack/TensorArrayScatter/TensorArrayScatterV3"
  op: "TensorArrayScatterV3"
  input: "lstm_1/TensorArray_1"
  input: "lstm_1/TensorArrayUnstack/range"
  input: "lstm_1/transpose"
  input: "lstm_1/TensorArray_1:1"
  attr {
    key: "T"
    value {
      type: DT_FLOAT
    }
  }
  attr {
    key: "_class"
    value {
      list {
        s: "loc:@lstm_1/transpose"
      }
    }
  }
}
node {
  name: "lstm_1/time"
  op: "Const"
  attr {
    key: "dtype"
    value {
      type: DT_INT32
    }
  }
  attr {
    key: "value"
    value {
      tensor {
        dtype: DT_INT32
        tensor_shape {
        }
        int_val: 0
      }
    }
  }
}
node {
  name: "lstm_1/while/Enter"
  op: "Enter"
  input: "lstm_1/time"
  attr {
    key: "T"
    value {
      type: DT_INT32
    }
  }
  attr {
    key: "frame_name"
    value {
      s: "lstm_1/while/while_context"
    }
  }
  attr {
    key: "is_constant"
    value {
      b: false
    }
  }
  attr {
    key: "parallel_iterations"
    value {
      i: 32
    }
  }
}
node {
  name: "lstm_1/while/Enter_1"
  op: "Enter"
  input: "lstm_1/TensorArray:1"
  attr {
    key: "T"
    value {
      type: DT_FLOAT
    }
  }
  attr {
    key: "frame_name"
    value {
      s: "lstm_1/while/while_context"
    }
  }
  attr {
    key: "is_constant"
    value {
      b: false
    }
  }
  attr {
    key: "parallel_iterations"
    value {
      i: 32
    }
  }
}
node {
  name: "lstm_1/while/Enter_2"
  op: "Enter"
  input: "lstm_1/Tile"
  attr {
    key: "T"
    value {
      type: DT_FLOAT
    }
  }
  attr {
    key: "frame_name"
    value {
      s: "lstm_1/while/while_context"
    }
  }
  attr {
    key: "is_constant"
    value {
      b: false
    }
  }
  attr {
    key: "parallel_iterations"
    value {
      i: 32
    }
  }
}
node {
  name: "lstm_1/while/Enter_3"
  op: "Enter"
  input: "lstm_1/Tile_1"
  attr {
    key: "T"
    value {
      type: DT_FLOAT
    }
  }
  attr {
    key: "frame_name"
    value {
      s: "lstm_1/while/while_context"
    }
  }
  attr {
    key: "is_constant"
    value {
      b: false
    }
  }
  attr {
    key: "parallel_iterations"
    value {
      i: 32
    }
  }
}
node {
  name: "lstm_1/while/Merge"
  op: "Merge"
  input: "lstm_1/while/Enter"
  input: "lstm_1/while/NextIteration"
  attr {
    key: "N"
    value {
      i: 2
    }
  }
  attr {
    key: "T"
    value {
      type: DT_INT32
    }
  }
}
node {
  name: "lstm_1/while/Merge_1"
  op: "Merge"
  input: "lstm_1/while/Enter_1"
  input: "lstm_1/while/NextIteration_1"
  attr {
    key: "N"
    value {
      i: 2
    }
  }
  attr {
    key: "T"
    value {
      type: DT_FLOAT
    }
  }
}
node {
  name: "lstm_1/while/Merge_2"
  op: "Merge"
  input: "lstm_1/while/Enter_2"
  input: "lstm_1/while/NextIteration_2"
  attr {
    key: "N"
    value {
      i: 2
    }
  }
  attr {
    key: "T"
    value {
      type: DT_FLOAT
    }
  }
}
node {
  name: "lstm_1/while/Merge_3"
  op: "Merge"
  input: "lstm_1/while/Enter_3"
  input: "lstm_1/while/NextIteration_3"
  attr {
    key: "N"
    value {
      i: 2
    }
  }
  attr {
    key: "T"
    value {
      type: DT_FLOAT
    }
  }
}
node {
  name: "lstm_1/while/Less"
  op: "Less"
  input: "lstm_1/while/Merge"
  input: "lstm_1/while/Less/Enter"
  attr {
    key: "T"
    value {
      type: DT_INT32
    }
  }
}
node {
  name: "lstm_1/while/Less/Enter"
  op: "Enter"
  input: "lstm_1/strided_slice_12"
  attr {
    key: "T"
    value {
      type: DT_INT32
    }
  }
  attr {
    key: "frame_name"
    value {
      s: "lstm_1/while/while_context"
    }
  }
  attr {
    key: "is_constant"
    value {
      b: true
    }
  }
  attr {
    key: "parallel_iterations"
    value {
      i: 32
    }
  }
}
node {
  name: "lstm_1/while/LoopCond"
  op: "LoopCond"
  input: "lstm_1/while/Less"
}
node {
  name: "lstm_1/while/Switch"
  op: "Switch"
  input: "lstm_1/while/Merge"
  input: "lstm_1/while/LoopCond"
  attr {
    key: "T"
    value {
      type: DT_INT32
    }
  }
  attr {
    key: "_class"
    value {
      list {
        s: "loc:@lstm_1/while/Merge"
      }
    }
  }
}
node {
  name: "lstm_1/while/Switch_1"
  op: "Switch"
  input: "lstm_1/while/Merge_1"
  input: "lstm_1/while/LoopCond"
  attr {
    key: "T"
    value {
      type: DT_FLOAT
    }
  }
  attr {
    key: "_class"
    value {
      list {
        s: "loc:@lstm_1/while/Merge_1"
      }
    }
  }
}
node {
  name: "lstm_1/while/Switch_2"
  op: "Switch"
